
// ADDED LINES START
constexpr char* processing_method = "none";
constexpr double expected_duration = 1.0;
constexpr int sample_rate = 16000;
constexpr int window_size_samples = 512;
constexpr int window_stride_samples = 480;

const char* RESPONSES[] = {"abc", "cde", "hello", "test"};
unsigned short NUM_RESPONSES = 4;

// ADDED LINES END

alignas(8) const unsigned char model_tflite[] = {
0x20, 0x00, 0x00, 0x00, 0x54, 0x46, 0x4C, 0x33, 0x00, 0x00, 0x00, 0x00, 0x14, 0x00, 0x20, 0x00, 0x04, 0x00, 0x08, 0x00, 0x0C, 0x00, 0x10, 0x00, 0x14, 0x00, 0x00, 0x00, 0x18, 0x00, 0x1C, 0x00, 0x14, 0x00, 0x00, 0x00, 0x03, 0x00, 0x00, 0x00, 0x18, 0x00, 0x00, 0x00, 0x34, 0x00, 0x00, 0x00, 0x08, 0x01, 0x00, 0x00, 0x34, 0x00, 0x00, 0x00, 0xB0, 0x00, 0x00, 0x00, 0xA8, 0x00, 0x00, 0x00, 0x07, 0x00, 0x00, 0x00, 0x34, 0x2C, 0x00, 0x00, 0xC4, 0x29, 0x00, 0x00, 0xC0, 0x28, 0x00, 0x00, 0x90, 0x0E, 0x00, 0x00, 0xF4, 0x04, 0x00, 0x00, 0x8C, 0x02, 0x00, 0x00, 0x04, 0x02, 0x00, 0x00, 0x01, 0x00, 0x00, 0x00, 0xF8, 0x00, 0x00, 0x00, 0x1E, 0x00, 0x00, 0x00, 0xD0, 0x35, 0x00, 0x00, 0xCC, 0x35, 0x00, 0x00, 0xF0, 0x34, 0x00, 0x00, 0xE8, 0x32, 0x00, 0x00, 0x1C, 0x31, 0x00, 0x00, 0xD0, 0x2F, 0x00, 0x00, 0xC4, 0x2E, 0x00, 0x00, 0x24, 0x2E, 0x00, 0x00, 0x80, 0x2D, 0x00, 0x00, 0xAC, 0x35, 0x00, 0x00, 0x98, 0x2A, 0x00, 0x00, 0xA4, 0x35, 0x00, 0x00, 0xA0, 0x35, 0x00, 0x00, 0xD0, 0x25, 0x00, 0x00, 0x98, 0x35, 0x00, 0x00, 0x94, 0x35, 0x00, 0x00, 0xA4, 0x1D, 0x00, 0x00, 0x8C, 0x35, 0x00, 0x00, 0x88, 0x35, 0x00, 0x00, 0xF8, 0x10, 0x00, 0x00, 0x80, 0x35, 0x00, 0x00, 0x7C, 0x35, 0x00, 0x00, 0x78, 0x35, 0x00, 0x00, 0x30, 0x05, 0x00, 0x00, 0x70, 0x35, 0x00, 0x00, 0x78, 0x03, 0x00, 0x00, 0x68, 0x35, 0x00, 0x00, 0x64, 0x35, 0x00, 0x00, 0x60, 0x35, 0x00, 0x00, 0x3C, 0x00, 0x00, 0x00, 0x00, 0x00, 0x00, 0x00, 0x01, 0x00, 0x00, 0x00, 0x0C, 0x00, 0x00, 0x00, 0x08, 0x00, 0x0C, 0x00, 0x04, 0x00, 0x08, 0x00, 0x08, 0x00, 0x00, 0x00, 0x08, 0x00, 0x00, 0x00, 0x1D, 0x00, 0x00, 0x00, 0x13, 0x00, 0x00, 0x00, 0x6D, 0x69, 0x6E, 0x5F, 0x72, 0x75, 0x6E, 0x74, 0x69, 0x6D, 0x65, 0x5F, 0x76, 0x65, 0x72, 0x73, 0x69, 0x6F, 0x6E, 0x00, 0xBE, 0xCB, 0xFF, 0xFF, 0x04, 0x00, 0x00, 0x00, 0x10, 0x00, 0x00, 0x00, 0x31, 0x2E, 0x31, 0x34, 0x2E, 0x30, 0x00, 0x00, 0x00, 0x00, 0x00, 0x00, 0x00, 0x00, 0x00, 0x00, 0x0F, 0x00, 0x00, 0x00, 0x4D, 0x4C, 0x49, 0x52, 0x20, 0x43, 0x6F, 0x6E, 0x76, 0x65, 0x72, 0x74, 0x65, 0x64, 0x2E, 0x00, 0x00, 0x00, 0x0E, 0x00, 0x18, 0x00, 0x04, 0x00, 0x08, 0x00, 0x0C, 0x00, 0x10, 0x00, 0x14, 0x00, 0x0E, 0x00, 0x00, 0x00, 0x14, 0x00, 0x00, 0x00, 0x84, 0x00, 0x00, 0x00, 0x88, 0x00, 0x00, 0x00, 0x8C, 0x00, 0x00, 0x00, 0xC4, 0x00, 0x00, 0x00, 0x1C, 0x00, 0x00, 0x00, 0x70, 0x34, 0x00, 0x00, 0x0C, 0x34, 0x00, 0x00, 0x2C, 0x32, 0x00, 0x00, 0x60, 0x30, 0x00, 0x00, 0xF4, 0x2E, 0x00, 0x00, 0xD8, 0x2D, 0x00, 0x00, 0x38, 0x2D, 0x00, 0x00, 0x94, 0x2C, 0x00, 0x00, 0x04, 0x2B, 0x00, 0x00, 0xC0, 0x29, 0x00, 0x00, 0x7C, 0x28, 0x00, 0x00, 0x78, 0x27, 0x00, 0x00, 0xF4, 0x25, 0x00, 0x00, 0xB8, 0x23, 0x00, 0x00, 0xDC, 0x22, 0x00, 0x00, 0x28, 0x21, 0x00, 0x00, 0x8C, 0x1B, 0x00, 0x00, 0xB0, 0x1A, 0x00, 0x00, 0xFC, 0x18, 0x00, 0x00, 0xBC, 0x0E, 0x00, 0x00, 0xE4, 0x0D, 0x00, 0x00, 0x24, 0x0D, 0x00, 0x00, 0x34, 0x0C, 0x00, 0x00, 0x84, 0x03, 0x00, 0x00, 0x8C, 0x02, 0x00, 0x00, 0xCC, 0x01, 0x00, 0x00, 0x14, 0x01, 0x00, 0x00, 0x8C, 0x00, 0x00, 0x00, 0x01, 0x00, 0x00, 0x00, 0x00, 0x00, 0x00, 0x00, 0x01, 0x00, 0x00, 0x00, 0x1B, 0x00, 0x00, 0x00, 0x0E, 0x00, 0x00, 0x00, 0x54, 0x2A, 0x00, 0x00, 0xC0, 0x27, 0x00, 0x00, 0xBC, 0x26, 0x00, 0x00, 0x1C, 0x23, 0x00, 0x00, 0x44, 0x22, 0x00, 0x00, 0xF4, 0x1A, 0x00, 0x00, 0x1C, 0x1A, 0x00, 0x00, 0x28, 0x0E, 0x00, 0x00, 0x54, 0x0D, 0x00, 0x00, 0x9C, 0x0C, 0x00, 0x00, 0xF0, 0x02, 0x00, 0x00, 0x4C, 0x01, 0x00, 0x00, 0x88, 0x00, 0x00, 0x00, 0x10, 0x00, 0x00, 0x00, 0x04, 0x00, 0x00, 0x00, 0x6D, 0x61, 0x69, 0x6E, 0x00, 0x00, 0x00, 0x00, 0x8E, 0xF3, 0xFF, 0xFF, 0x06, 0x00, 0x00, 0x00, 0x10, 0x00, 0x00, 0x00, 0x04, 0x00, 0x00, 0x00, 0x01, 0x00, 0x00, 0x00, 0x1B, 0x00, 0x00, 0x00, 0x01, 0x00, 0x00, 0x00, 0x1A, 0x00, 0x00, 0x00, 0xF4, 0xD5, 0xFF, 0xFF, 0x06, 0x00, 0x00, 0x00, 0x00, 0x00, 0x00, 0x06, 0x02, 0x00, 0x00, 0x00, 0x9C, 0xCC, 0xFF, 0xFF, 0x14, 0x00, 0x00, 0x00, 0x1C, 0x00, 0x00, 0x00, 0x24, 0x00, 0x00, 0x00, 0x30, 0x00, 0x00, 0x00, 0x10, 0x00, 0x00, 0x00, 0x02, 0x00, 0x00, 0x00, 0x01, 0x00, 0x00, 0x00, 0x04, 0x00, 0x00, 0x00, 0x02, 0x00, 0x00, 0x00, 0xFF, 0xFF, 0xFF, 0xFF, 0x04, 0x00, 0x00, 0x00, 0x08, 0x00, 0x00, 0x00, 0x49, 0x64, 0x65, 0x6E, 0x74, 0x69, 0x74, 0x79, 0x00, 0x00, 0x00, 0x00, 0x78, 0xCC, 0xFF, 0xFF, 0x02, 0xD9, 0xFF, 0xFF, 0x00, 0x00, 0x00, 0x09, 0x05, 0x00, 0x00, 0x00, 0x1C, 0x00, 0x00, 0x00, 0x10, 0x00, 0x00, 0x00, 0x04, 0x00, 0x00, 0x00, 0x6E, 0xCD, 0xFF, 0xFF, 0x00, 0x00, 0x80, 0x3F, 0x01, 0x00, 0x00, 0x00, 0x1A, 0x00, 0x00, 0x00, 0x01, 0x00, 0x00, 0x00, 0x19, 0x00, 0x00, 0x00, 0x78, 0xD6, 0xFF, 0xFF, 0x19, 0x00, 0x00, 0x00, 0x00, 0x00, 0x00, 0x19, 0x02, 0x00, 0x00, 0x00, 0x6C, 0xD6, 0xFF, 0xFF, 0x00, 0x00, 0x00, 0x09, 0x14, 0x00, 0x00, 0x00, 0x1B, 0x00, 0x00, 0x00, 0x24, 0x00, 0x00, 0x00, 0x48, 0x00, 0x00, 0x00, 0x10, 0x00, 0x00, 0x00, 0x02, 0x00, 0x00, 0x00, 0x01, 0x00, 0x00, 0x00, 0x04, 0x00, 0x00, 0x00, 0x02, 0x00, 0x00, 0x00, 0xFF, 0xFF, 0xFF, 0xFF, 0x04, 0x00, 0x00, 0x00, 0x22, 0x00, 0x00, 0x00, 0x73, 0x65, 0x71, 0x75, 0x65, 0x6E, 0x74, 0x69, 0x61, 0x6C, 0x5F, 0x31, 0x2F, 0x71, 0x75, 0x61, 0x6E, 0x74, 0x5F, 0x64, 0x65, 0x6E, 0x73, 0x65, 0x5F, 0x33, 0x2F, 0x53, 0x6F, 0x66, 0x74, 0x6D, 0x61, 0x78, 0x00, 0x00, 0xD8, 0xCE, 0xFF, 0xFF, 0x08, 0x00, 0x00, 0x00, 0x0C, 0x00, 0x00, 0x00, 0x01, 0x00, 0x00, 0x00, 0x00, 0x00, 0x80, 0x3B, 0x01, 0x00, 0x00, 0x00, 0x80, 0xFF, 0xFF, 0xFF, 0xFF, 0xFF, 0xFF, 0xFF, 0x00, 0x00, 0x00, 0x00, 0xC2, 0xD9, 0xFF, 0xFF, 0x00, 0x00, 0x00, 0x08, 0x04, 0x00, 0x00, 0x00, 0x18, 0x00, 0x00, 0x00, 0x0C, 0x00, 0x00, 0x00, 0x04, 0x00, 0x00, 0x00, 0x54, 0xCD, 0xFF, 0xFF, 0x01, 0x00, 0x00, 0x00, 0x19, 0x00, 0x00, 0x00, 0x03, 0x00, 0x00, 0x00, 0x17, 0x00, 0x00, 0x00, 0x18, 0x00, 0x00, 0x00, 0x07, 0x00, 0x00, 0x00, 0x20, 0xD7, 0xFF, 0xFF, 0x00, 0x00, 0x00, 0x09, 0x14, 0x00, 0x00, 0x00, 0x1A, 0x00, 0x00, 0x00, 0x24, 0x00, 0x00, 0x00, 0x6C, 0x00, 0x00, 0x00, 0x10, 0x00, 0x00, 0x00, 0x02, 0x00, 0x00, 0x00, 0x01, 0x00, 0x00, 0x00, 0x04, 0x00, 0x00, 0x00, 0x02, 0x00, 0x00, 0x00, 0xFF, 0xFF, 0xFF, 0xFF, 0x04, 0x00, 0x00, 0x00, 0x44, 0x00, 0x00, 0x00, 0x73, 0x65, 0x71, 0x75, 0x65, 0x6E, 0x74, 0x69, 0x61, 0x6C, 0x5F, 0x31, 0x2F, 0x71, 0x75, 0x61, 0x6E, 0x74, 0x5F, 0x64, 0x65, 0x6E, 0x73, 0x65, 0x5F, 0x33, 0x2F, 0x4D, 0x61, 0x74, 0x4D, 0x75, 0x6C, 0x3B, 0x73, 0x65, 0x71, 0x75, 0x65, 0x6E, 0x74, 0x69, 0x61, 0x6C, 0x5F, 0x31, 0x2F, 0x71, 0x75, 0x61, 0x6E, 0x74, 0x5F, 0x64, 0x65, 0x6E, 0x73, 0x65, 0x5F, 0x33, 0x2F, 0x42, 0x69, 0x61, 0x73, 0x41, 0x64, 0x64, 0x00, 0x00, 0x00, 0x00, 0xB0, 0xCF, 0xFF, 0xFF, 0x08, 0x00, 0x00, 0x00, 0x0C, 0x00, 0x00, 0x00, 0x01, 0x00, 0x00, 0x00, 0x0F, 0xE0, 0x3F, 0x3D, 0x01, 0x00, 0x00, 0x00, 0x00, 0x00, 0x00, 0x00, 0x00, 0x00, 0x00, 0x00, 0xEA, 0xCE, 0xFF, 0xFF, 0x04, 0x00, 0x00, 0x00, 0x10, 0x00, 0x00, 0x00, 0x81, 0x54, 0xEC, 0xBD, 0xCC, 0x08, 0xE5, 0x15, 0x81, 0xC0, 0xB8, 0xC7, 0xDC, 0x2A, 0xBC, 0xCC, 0xEA, 0xCE, 0xFF, 0xFF, 0x00, 0x00, 0x00, 0x09, 0x10, 0x00, 0x00, 0x00, 0x19, 0x00, 0x00, 0x00, 0x14, 0x00, 0x00, 0x00, 0x78, 0x00, 0x00, 0x00, 0x02, 0x00, 0x00, 0x00, 0x04, 0x00, 0x00, 0x00, 0x04, 0x00, 0x00, 0x00, 0x63, 0x00, 0x00, 0x00, 0x73, 0x65, 0x71, 0x75, 0x65, 0x6E, 0x74, 0x69, 0x61, 0x6C, 0x5F, 0x31, 0x2F, 0x71, 0x75, 0x61, 0x6E, 0x74, 0x5F, 0x64, 0x65, 0x6E, 0x73, 0x65, 0x5F, 0x33, 0x2F, 0x4D, 0x61, 0x74, 0x4D, 0x75, 0x6C, 0x3B, 0x73, 0x65, 0x71, 0x75, 0x65, 0x6E, 0x74, 0x69, 0x61, 0x6C, 0x5F, 0x31, 0x2F, 0x71, 0x75, 0x61, 0x6E, 0x74, 0x5F, 0x64, 0x65, 0x6E, 0x73, 0x65, 0x5F, 0x33, 0x2F, 0x4C, 0x61, 0x73, 0x74, 0x56, 0x61, 0x6C, 0x75, 0x65, 0x51, 0x75, 0x61, 0x6E, 0x74, 0x2F, 0x46, 0x61, 0x6B, 0x65, 0x51, 0x75, 0x61, 0x6E, 0x74, 0x57, 0x69, 0x74, 0x68, 0x4D, 0x69, 0x6E, 0x4D, 0x61, 0x78, 0x56, 0x61, 0x72, 0x73, 0x00, 0x78, 0xD0, 0xFF, 0xFF, 0x08, 0x00, 0x00, 0x00, 0x0C, 0x00, 0x00, 0x00, 0x01, 0x00, 0x00, 0x00, 0x15, 0x7D, 0xC4, 0x3B, 0x01, 0x00, 0x00, 0x00, 0x00, 0x00, 0x00, 0x00, 0x00, 0x00, 0x00, 0x00, 0x00, 0x00, 0x00, 0x00, 0x62, 0xDB, 0xFF, 0xFF, 0x00, 0x00, 0x00, 0x08, 0x04, 0x00, 0x00, 0x00, 0x18, 0x00, 0x00, 0x00, 0x0C, 0x00, 0x00, 0x00, 0x04, 0x00, 0x00, 0x00, 0xF4, 0xCE, 0xFF, 0xFF, 0x01, 0x00, 0x00, 0x00, 0x17, 0x00, 0x00, 0x00, 0x03, 0x00, 0x00, 0x00, 0x15, 0x00, 0x00, 0x00, 0x16, 0x00, 0x00, 0x00, 0x06, 0x00, 0x00, 0x00, 0xDC, 0xD8, 0xFF, 0xFF, 0x09, 0x00, 0x00, 0x00, 0x00, 0x00, 0x00, 0x09, 0x04, 0x00, 0x00, 0x00, 0xD0, 0xD8, 0xFF, 0xFF, 0x00, 0x00, 0x00, 0x09, 0x14, 0x00, 0x00, 0x00, 0x18, 0x00, 0x00, 0x00, 0x24, 0x00, 0x00, 0x00, 0x6C, 0x00, 0x00, 0x00, 0x10, 0x00, 0x00, 0x00, 0x02, 0x00, 0x00, 0x00, 0x01, 0x00, 0x00, 0x00, 0x04, 0x00, 0x00, 0x00, 0x02, 0x00, 0x00, 0x00, 0xFF, 0xFF, 0xFF, 0xFF, 0x04, 0x00, 0x00, 0x00, 0x44, 0x00, 0x00, 0x00, 0x73, 0x65, 0x71, 0x75, 0x65, 0x6E, 0x74, 0x69, 0x61, 0x6C, 0x5F, 0x31, 0x2F, 0x71, 0x75, 0x61, 0x6E, 0x74, 0x5F, 0x64, 0x65, 0x6E, 0x73, 0x65, 0x5F, 0x32, 0x2F, 0x4D, 0x61, 0x74, 0x4D, 0x75, 0x6C, 0x3B, 0x73, 0x65, 0x71, 0x75, 0x65, 0x6E, 0x74, 0x69, 0x61, 0x6C, 0x5F, 0x31, 0x2F, 0x71, 0x75, 0x61, 0x6E, 0x74, 0x5F, 0x64, 0x65, 0x6E, 0x73, 0x65, 0x5F, 0x32, 0x2F, 0x42, 0x69, 0x61, 0x73, 0x41, 0x64, 0x64, 0x00, 0x00, 0x00, 0x00, 0x60, 0xD1, 0xFF, 0xFF, 0x08, 0x00, 0x00, 0x00, 0x0C, 0x00, 0x00, 0x00, 0x01, 0x00, 0x00, 0x00, 0xCB, 0xE2, 0x3F, 0x3D, 0x01, 0x00, 0x00, 0x00, 0xFF, 0xFF, 0xFF, 0xFF, 0xFF, 0xFF, 0xFF, 0xFF, 0x9A, 0xD0, 0xFF, 0xFF, 0x04, 0x00, 0x00, 0x00, 0x00, 0x08, 0x00, 0x00, 0x67, 0x60, 0x19, 0x29, 0x77, 0x8B, 0xFF, 0xB6, 0xC3, 0x6E, 0xFC, 0x5D, 0xE3, 0x0E, 0x4D, 0x66, 0xF0, 0xDE, 0xFF, 0x60, 0x4D, 0x23, 0xF7, 0x42, 0xE7, 0x2A, 0xD9, 0x24, 0x9A, 0xF7, 0x2A, 0x43, 0x49, 0xD2, 0xFA, 0xA4, 0xE0, 0xF4, 0x33, 0xA7, 0xC3, 0xBA, 0xED, 0x4C, 0xBD, 0xF1, 0x69, 0xCC, 0x8D, 0x1D, 0x3B, 0x13, 0x71, 0x15, 0xA4, 0x60, 0x79, 0xF7, 0xE9, 0xD2, 0xD9, 0x51, 0xBF, 0xBF, 0x4E, 0xA1, 0x95, 0xB0, 0x8F, 0x29, 0x0D, 0xC0, 0xDF, 0x3D, 0x5B, 0x6A, 0xD5, 0xC8, 0x60, 0x97, 0x49, 0x5E, 0xEF, 0xF9, 0x3E, 0x29, 0x07, 0xBC, 0x06, 0x23, 0xC7, 0x13, 0xE8, 0xA7, 0xA9, 0x15, 0xB1, 0xBC, 0x0F, 0xEE, 0xB6, 0x59, 0x50, 0x24, 0xE1, 0x30, 0xA7, 0x92, 0xAD, 0x31, 0x03, 0x45, 0xD7, 0x74, 0x70, 0x04, 0xAB, 0xCE, 0x15, 0xA7, 0x14, 0x2C, 0x67, 0x6F, 0x74, 0x8B, 0xC7, 0x66, 0xDC, 0xA0, 0x01, 0x56, 0x32, 0x1F, 0x4B, 0xD8, 0x1E, 0xEB, 0x44, 0x14, 0xD8, 0x48, 0x79, 0x3A, 0x5E, 0xA8, 0x41, 0xC3, 0x53, 0xCA, 0xF4, 0x3A, 0x95, 0xF5, 0x72, 0x0D, 0x6A, 0xCE, 0xA8, 0xA5, 0x08, 0xE4, 0x5A, 0x4C, 0x88, 0x21, 0x44, 0x75, 0xCE, 0x05, 0x92, 0xFE, 0x5B, 0x46, 0x9E, 0xF7, 0x72, 0xCF, 0x9E, 0x14, 0xE3, 0xF3, 0x77, 0x39, 0x5F, 0x14, 0x4A, 0xD8, 0x7D, 0xEC, 0x79, 0x02, 0x14, 0xA1, 0xE9, 0x46, 0x1D, 0xFD, 0x98, 0xE0, 0x4E, 0x72, 0x64, 0x94, 0x64, 0x66, 0x5D, 0xCB, 0x5D, 0xD5, 0x67, 0x4C, 0x61, 0x99, 0x1D, 0x55, 0xE1, 0xE7, 0x1B, 0x96, 0xE8, 0xCD, 0x20, 0x28, 0x1E, 0x65, 0xE2, 0x07, 0x15, 0x3C, 0xB0, 0xF2, 0x52, 0x3F, 0x4E, 0x48, 0xFB, 0x27, 0x6C, 0x3A, 0x27, 0x6B, 0xB8, 0xF3, 0x59, 0x1D, 0x54, 0xC1, 0xF5, 0x62, 0x40, 0x0E, 0x07, 0x76, 0xB6, 0xE0, 0x3C, 0x9E, 0xAF, 0x78, 0xC9, 0x59, 0x09, 0x62, 0x48, 0x60, 0x2B, 0x30, 0xE4, 0xE8, 0xBE, 0x0A, 0xA0, 0x8D, 0xC0, 0x28, 0x73, 0x4F, 0x97, 0x9B, 0x4B, 0x0F, 0xEE, 0x42, 0xD3, 0x06, 0x2A, 0x70, 0x19, 0x66, 0x93, 0xD4, 0x74, 0x48, 0x28, 0xF6, 0xDB, 0x08, 0xAE, 0x16, 0xDD, 0xF9, 0x70, 0x6B, 0x6D, 0xE7, 0xFF, 0x22, 0xBC, 0xC2, 0x17, 0x58, 0xF9, 0x77, 0x58, 0x75, 0xB4, 0xEA, 0x46, 0xD8, 0x7C, 0xE0, 0xC0, 0xF4, 0xC6, 0x0B, 0x11, 0x59, 0xAA, 0x15, 0x26, 0x65, 0xAA, 0x6B, 0x22, 0xC5, 0xCE, 0x29, 0x6B, 0x4A, 0x3F, 0x0B, 0x49, 0xDF, 0x9D, 0x31, 0x2C, 0xFA, 0xC2, 0xDB, 0x0E, 0x65, 0x7D, 0x28, 0xA3, 0xCF, 0xD5, 0xDE, 0x4D, 0x9B, 0xD7, 0x24, 0x23, 0x72, 0x39, 0xD7, 0xF6, 0xC5, 0xFA, 0x76, 0xF3, 0x71, 0xE2, 0xC5, 0x01, 0xD8, 0x16, 0xA0, 0xF1, 0x11, 0x3C, 0x0B, 0x04, 0xF7, 0x9F, 0xCA, 0x9D, 0xE5, 0x32, 0xC7, 0xD1, 0x3F, 0x96, 0x7C, 0x44, 0x2C, 0x14, 0x16, 0x5C, 0xD3, 0x41, 0x8F, 0xC9, 0xDA, 0x4B, 0x7A, 0x4E, 0xB6, 0x8F, 0x44, 0x46, 0x07, 0xEC, 0xEE, 0x47, 0xD7, 0x3F, 0x8E, 0x15, 0x4A, 0x1C, 0x26, 0xB6, 0x53, 0x16, 0x42, 0xDC, 0x70, 0x55, 0x6D, 0x8F, 0xAF, 0xE4, 0x6D, 0xD1, 0xE8, 0x36, 0x07, 0x07, 0x66, 0x37, 0x4D, 0xA9, 0x74, 0x4F, 0x89, 0x58, 0x0D, 0x0A, 0x21, 0x4A, 0xFF, 0xCE, 0xBF, 0xCE, 0xF0, 0xE4, 0x3C, 0xF7, 0x58, 0xC0, 0x70, 0xA6, 0xD1, 0x31, 0xFF, 0x0D, 0x79, 0x28, 0x35, 0x0D, 0xBA, 0x9F, 0x1E, 0x3F, 0x17, 0xBB, 0x22, 0x12, 0x5C, 0x60, 0xF7, 0x6A, 0x74, 0xDD, 0x6F, 0xF6, 0x2E, 0xBA, 0xE2, 0x96, 0xB8, 0x1E, 0x78, 0xE1, 0x96, 0xAC, 0x98, 0x66, 0x0D, 0xFD, 0x1F, 0x03, 0xD9, 0x07, 0x30, 0xF3, 0x97, 0x24, 0x1D, 0xC3, 0x75, 0xE3, 0x2A, 0x15, 0x33, 0xBA, 0xF5, 0x91, 0x37, 0xEE, 0xB9, 0x8C, 0x8E, 0x8D, 0x04, 0xA9, 0xD4, 0xFC, 0x2E, 0xDC, 0x3B, 0x3F, 0xE6, 0x6E, 0x0C, 0x06, 0x16, 0x96, 0xB8, 0x69, 0x6A, 0x35, 0xC8, 0x3E, 0x69, 0x34, 0x30, 0x99, 0x66, 0xF7, 0x13, 0x90, 0x6C, 0x8D, 0x11, 0x62, 0x5B, 0xAA, 0xCE, 0xE3, 0x85, 0x93, 0xDA, 0xDE, 0xCC, 0xCC, 0xF7, 0xD9, 0x4C, 0xA8, 0x0D, 0xD4, 0xD8, 0x02, 0xE3, 0xA4, 0x08, 0x0D, 0x52, 0xB5, 0x78, 0xF7, 0x41, 0x2D, 0xB5, 0x16, 0xC9, 0xBA, 0xA6, 0x67, 0x88, 0xD9, 0x68, 0xA2, 0xD3, 0x40, 0x1A, 0x7B, 0xB1, 0xFB, 0x47, 0x20, 0x4A, 0xB2, 0xA6, 0xED, 0x0B, 0x5B, 0xD1, 0xA8, 0xA5, 0x07, 0xD3, 0x76, 0x13, 0xBF, 0x30, 0x63, 0x23, 0xE9, 0x25, 0x7D, 0xE6, 0xC6, 0xDD, 0x64, 0x2D, 0x21, 0xA2, 0x4A, 0xFB, 0x6F, 0xE1, 0xB1, 0xAD, 0xF0, 0x43, 0x88, 0xD6, 0x1F, 0xD0, 0x92, 0x57, 0x1E, 0xEB, 0x56, 0x1E, 0x6E, 0x7B, 0x16, 0x45, 0x7D, 0xF8, 0x7A, 0xA0, 0xD0, 0xCE, 0xDB, 0x8C, 0x42, 0xFD, 0x29, 0xA2, 0x35, 0x00, 0xC2, 0xC5, 0xBD, 0xF9, 0x56, 0x9E, 0x4C, 0x66, 0xD8, 0xBD, 0xFA, 0xC6, 0xF1, 0x02, 0xCA, 0x62, 0x64, 0x40, 0x43, 0x65, 0x8E, 0xAA, 0x35, 0xFE, 0x84, 0x7D, 0x0B, 0xF2, 0xCE, 0x0E, 0x78, 0x67, 0xA8, 0xC4, 0x3B, 0x39, 0x35, 0xF4, 0x28, 0x60, 0x4A, 0xAA, 0x01, 0x04, 0xA7, 0xC7, 0x93, 0x46, 0x7F, 0xBD, 0x8C, 0x8A, 0xFF, 0x03, 0x2C, 0x1E, 0x35, 0x06, 0x71, 0x1D, 0xE0, 0x8A, 0x59, 0xBA, 0x38, 0xA1, 0x1A, 0x4E, 0x4C, 0x82, 0xA3, 0xC2, 0xA9, 0x7E, 0x49, 0x2F, 0xC0, 0xCB, 0xFC, 0x54, 0x2E, 0x40, 0x1B, 0xE6, 0x12, 0xF1, 0x44, 0xCD, 0xE1, 0xD6, 0x3B, 0xA9, 0xBD, 0x9B, 0x1E, 0x62, 0xB7, 0x91, 0xB3, 0x67, 0xA5, 0xD6, 0x8A, 0x38, 0x9A, 0x1E, 0x50, 0xEF, 0xE7, 0xDC, 0xA4, 0x06, 0x4E, 0xAD, 0x40, 0xC3, 0x38, 0x9F, 0x74, 0x0C, 0xBD, 0x92, 0xEF, 0x3C, 0xB6, 0x31, 0xE5, 0xFC, 0x06, 0x9F, 0xF7, 0x9E, 0xD7, 0xC1, 0x5D, 0xAB, 0xFA, 0x55, 0x76, 0x18, 0x64, 0x92, 0xF8, 0xEF, 0xDF, 0x8D, 0x37, 0xC5, 0x3F, 0x00, 0x26, 0x41, 0xA4, 0x45, 0x3C, 0x0F, 0x62, 0x5C, 0x51, 0x62, 0x4A, 0x97, 0xF5, 0x52, 0xA1, 0x5D, 0xB4, 0xCA, 0x91, 0xDA, 0x3C, 0x0F, 0x0B, 0x37, 0x20, 0xDF, 0x1B, 0x1A, 0xCB, 0x93, 0xF0, 0x39, 0x60, 0xC8, 0x59, 0x6C, 0x4B, 0x10, 0x55, 0x3F, 0x66, 0xDB, 0x47, 0x40, 0xCD, 0x9B, 0x11, 0x19, 0x44, 0x1A, 0xEB, 0x8E, 0x28, 0x54, 0xA2, 0x2D, 0xBE, 0x18, 0x26, 0x59, 0x2A, 0x48, 0xC9, 0xC8, 0x36, 0xD0, 0x4E, 0x4D, 0xCF, 0x32, 0x8D, 0xEC, 0xAE, 0xF6, 0x10, 0xAC, 0x29, 0xA5, 0xCB, 0x4F, 0x9F, 0x44, 0xDA, 0x88, 0x87, 0x2A, 0x74, 0x18, 0xB8, 0x53, 0x76, 0x0B, 0x3A, 0x6C, 0x77, 0x4B, 0x17, 0x4F, 0xD6, 0x5C, 0xD2, 0xB0, 0x2C, 0xA4, 0x4F, 0xF9, 0x4B, 0xEB, 0x9E, 0x58, 0x0A, 0x32, 0xFD, 0xEA, 0x68, 0xB3, 0x29, 0xCD, 0x18, 0x69, 0x78, 0xC8, 0x09, 0xE6, 0xA0, 0xEA, 0xF7, 0x6C, 0xDD, 0x6F, 0x4C, 0x2C, 0x0B, 0x6D, 0x54, 0xFF, 0xEC, 0x53, 0xFF, 0x47, 0xDA, 0xF4, 0x2E, 0x4C, 0xBE, 0x20, 0x67, 0x14, 0x95, 0xF1, 0xF7, 0x4C, 0x37, 0x2C, 0x2F, 0x34, 0x19, 0x03, 0xC7, 0x21, 0x1B, 0xE6, 0xA1, 0x89, 0x41, 0xFA, 0x5A, 0x93, 0x3A, 0xE2, 0xBA, 0x62, 0xCD, 0x59, 0x78, 0xB4, 0x30, 0xBE, 0xD4, 0x99, 0xCB, 0x4E, 0x2E, 0x05, 0x9F, 0x13, 0x0E, 0x29, 0x8F, 0x75, 0xCC, 0xF4, 0x8E, 0xE7, 0xE9, 0x51, 0x74, 0xC5, 0xBE, 0x00, 0x14, 0xBD, 0x31, 0xDD, 0x65, 0xEA, 0x92, 0x66, 0x4E, 0x38, 0x34, 0x26, 0x19, 0xF9, 0xEC, 0x69, 0xA2, 0xA6, 0xA2, 0xAA, 0x1A, 0x61, 0x50, 0xC2, 0xFC, 0x6A, 0x2A, 0x84, 0xBD, 0x1F, 0x8A, 0x4C, 0xE1, 0xD6, 0x8D, 0x07, 0x8F, 0xFE, 0x53, 0x29, 0xEC, 0x46, 0xBD, 0x15, 0xCB, 0x40, 0x55, 0x89, 0xC8, 0x30, 0x0A, 0xA3, 0x99, 0xD7, 0x89, 0xFA, 0xC2, 0x8B, 0xDC, 0xFC, 0xAD, 0x10, 0x1E, 0x17, 0xDB, 0xAC, 0x40, 0x9F, 0x1C, 0x0F, 0xF5, 0xF9, 0x6A, 0x31, 0x36, 0x4E, 0xE8, 0x1A, 0x06, 0x0B, 0x59, 0x3D, 0x4A, 0x21, 0x8E, 0x03, 0xA4, 0x37, 0x3D, 0x0E, 0x09, 0x1E, 0xC0, 0x53, 0x45, 0xD5, 0xF2, 0x70, 0x99, 0x6F, 0x1A, 0xC6, 0x38, 0xAC, 0x19, 0x4C, 0xEF, 0xCF, 0xBA, 0xC9, 0x96, 0xFA, 0xEC, 0x45, 0xA0, 0x60, 0x67, 0x8A, 0xFC, 0x52, 0xE8, 0x1B, 0x63, 0xE0, 0xD2, 0xB3, 0x2D, 0x0C, 0xDA, 0x60, 0x3E, 0xB4, 0x53, 0x6E, 0xDA, 0xDF, 0x45, 0xC8, 0xFC, 0x5F, 0xB8, 0x4E, 0xCB, 0x08, 0xFF, 0xD0, 0x63, 0xE7, 0xBD, 0x0C, 0xF2, 0xE9, 0x25, 0x3E, 0x4A, 0xF7, 0xAE, 0x92, 0xB7, 0x82, 0xD4, 0x92, 0x17, 0x6D, 0x9C, 0xAD, 0xB1, 0xE7, 0xFE, 0xD0, 0x28, 0x3B, 0xA7, 0x0C, 0xE3, 0x3C, 0xF4, 0x93, 0x6A, 0x16, 0xCA, 0x14, 0x64, 0xBD, 0x3B, 0x13, 0x28, 0xE8, 0x8D, 0x0C, 0x9A, 0xBF, 0x53, 0x1F, 0xC9, 0x27, 0xD6, 0xF4, 0x2D, 0x9C, 0xB8, 0xAB, 0xDE, 0x70, 0x4D, 0x94, 0x3D, 0x89, 0xB3, 0xE4, 0x8E, 0x33, 0x23, 0xA2, 0xDC, 0x47, 0x4E, 0x50, 0x06, 0x3E, 0x78, 0x5E, 0xBE, 0x32, 0x14, 0x3D, 0xE5, 0xE9, 0x31, 0x07, 0x45, 0x07, 0xF8, 0x6A, 0x50, 0x8B, 0x96, 0xAD, 0x5B, 0x49, 0x5F, 0x83, 0xF0, 0x12, 0xA4, 0xD8, 0xBD, 0xC9, 0xD1, 0x00, 0xD2, 0x63, 0x04, 0xA3, 0x51, 0xD8, 0x5A, 0xB9, 0xCF, 0x38, 0x65, 0xE1, 0x41, 0xEB, 0x42, 0xAC, 0xCA, 0xE3, 0x4F, 0xEE, 0x27, 0x54, 0x5F, 0x70, 0xF1, 0x71, 0x2F, 0x07, 0x20, 0xA6, 0x6D, 0x54, 0x3B, 0xDE, 0x9B, 0xD0, 0x92, 0xD0, 0x8D, 0xCE, 0x64, 0xE8, 0x03, 0xF5, 0x0D, 0x2A, 0x17, 0xF1, 0x35, 0x0D, 0xF3, 0x06, 0x71, 0x4C, 0x8A, 0x16, 0x5D, 0x98, 0x25, 0x27, 0xA9, 0xD3, 0x23, 0xBA, 0xA6, 0xFF, 0x8C, 0x32, 0x87, 0x73, 0xF1, 0x5D, 0x0E, 0x53, 0x90, 0x6A, 0xEE, 0x84, 0x4F, 0xEB, 0xF4, 0x67, 0xA5, 0xBD, 0xAB, 0x8B, 0x99, 0xDD, 0xCD, 0xE1, 0xB0, 0x90, 0x5E, 0x2B, 0xD1, 0xD0, 0x4F, 0xFC, 0xFB, 0x52, 0x1B, 0x8B, 0x8F, 0x92, 0x9A, 0x29, 0xA3, 0x19, 0xFE, 0xEE, 0x6C, 0xC3, 0xB6, 0xB4, 0xF4, 0x84, 0xEC, 0x38, 0x0A, 0x87, 0x0E, 0x8A, 0xCD, 0x2A, 0xDF, 0xE4, 0x9F, 0x86, 0x9D, 0xAF, 0x76, 0x69, 0x1E, 0xA0, 0xD0, 0x21, 0xC1, 0xEC, 0x8A, 0xDA, 0x15, 0x9E, 0x84, 0x61, 0x0F, 0x38, 0xE2, 0xAF, 0x66, 0x5F, 0x8A, 0x3D, 0x4C, 0xD8, 0x25, 0x55, 0x05, 0x20, 0x65, 0x1A, 0x54, 0xD2, 0xC4, 0xEB, 0x58, 0x83, 0x9C, 0xAB, 0x22, 0x58, 0x97, 0xCE, 0xA0, 0x2F, 0xB8, 0xEE, 0x26, 0xB6, 0x18, 0xFB, 0xDE, 0xD3, 0x41, 0x57, 0x50, 0xBB, 0xB6, 0x05, 0xCF, 0xB4, 0x8B, 0x72, 0x44, 0x52, 0x5B, 0xB1, 0x21, 0x89, 0x70, 0x5F, 0x65, 0xA3, 0x4F, 0x2F, 0xE3, 0xDE, 0xE0, 0xEF, 0xF8, 0xFC, 0x6D, 0x9A, 0x9B, 0xE9, 0x66, 0x5C, 0xFE, 0x87, 0x85, 0xD9, 0x3D, 0x63, 0x5C, 0x21, 0x6F, 0x0B, 0xCE, 0x42, 0x60, 0x2D, 0xE9, 0xE5, 0xE9, 0x56, 0x44, 0x72, 0xD6, 0xFC, 0x60, 0x20, 0x25, 0x04, 0xFD, 0x49, 0x03, 0x46, 0xB9, 0xD1, 0x14, 0xAB, 0x68, 0x12, 0x4C, 0x4F, 0xD6, 0xD8, 0x6C, 0x69, 0x47, 0x13, 0x06, 0x20, 0x1D, 0x4B, 0x41, 0x8C, 0x05, 0x9D, 0x2A, 0xB4, 0x5C, 0x44, 0xE1, 0xB0, 0x58, 0x11, 0x2A, 0xC9, 0x23, 0x5C, 0xAA, 0xDF, 0x21, 0x10, 0xF3, 0x52, 0xC0, 0x84, 0x5B, 0xBE, 0x5C, 0xC2, 0x56, 0x71, 0xAE, 0xE0, 0xCC, 0x93, 0xB6, 0x2E, 0x59, 0xC2, 0xBB, 0x3D, 0x56, 0x87, 0x63, 0x1F, 0x6C, 0x3B, 0x6A, 0x40, 0xA5, 0xAC, 0xE9, 0xB1, 0xF9, 0x53, 0xB1, 0xAD, 0xCC, 0x1A, 0x67, 0xBA, 0xE9, 0xD7, 0x64, 0xB1, 0xD3, 0xBA, 0x8F, 0xD3, 0x1F, 0xA7, 0x69, 0x3D, 0x29, 0xD8, 0xCB, 0x36, 0xCA, 0x62, 0xC3, 0x71, 0xC0, 0x2E, 0xDC, 0x49, 0x9B, 0x54, 0xF9, 0x06, 0x84, 0xC8, 0xE9, 0xED, 0x8E, 0xC6, 0x5F, 0xBA, 0xA6, 0x16, 0x33, 0xA8, 0x4B, 0x6D, 0xEE, 0x91, 0xAA, 0x1C, 0xB7, 0x97, 0x19, 0x62, 0xC1, 0x84, 0xCA, 0xE5, 0x15, 0x17, 0x26, 0x3C, 0xD3, 0xEC, 0xF8, 0x9A, 0x02, 0x64, 0xCA, 0xA2, 0xD7, 0xE0, 0xB6, 0x9D, 0x08, 0x62, 0x1B, 0x9E, 0xD7, 0xA7, 0xD7, 0xDD, 0x27, 0x9C, 0xEE, 0x11, 0xFF, 0x52, 0x2E, 0x5D, 0x43, 0x50, 0xB7, 0xD8, 0xCB, 0xE8, 0x27, 0xF7, 0x37, 0x39, 0x87, 0x49, 0x62, 0xBE, 0xED, 0x86, 0x6F, 0xEF, 0x38, 0x24, 0xBA, 0x36, 0xAF, 0x97, 0x1F, 0x59, 0x34, 0xC9, 0x07, 0xD5, 0x0E, 0x70, 0x01, 0xA3, 0x44, 0x30, 0x2D, 0x05, 0xD2, 0x1A, 0xA4, 0x9E, 0xA0, 0xF8, 0x59, 0xC2, 0x28, 0x60, 0x04, 0x9D, 0x5F, 0x96, 0x95, 0xF9, 0xCB, 0xE2, 0xAD, 0x15, 0xC6, 0x59, 0x12, 0x6F, 0x71, 0xD2, 0x3D, 0x9A, 0xE9, 0xEF, 0xD2, 0x64, 0x3E, 0xBC, 0x0D, 0xA2, 0x96, 0xDC, 0xF9, 0xE0, 0x90, 0x4A, 0x2F, 0xC9, 0x98, 0x65, 0x23, 0x71, 0x9F, 0xBB, 0xA5, 0x0B, 0x00, 0xC0, 0x85, 0x8D, 0x44, 0x30, 0x3E, 0x6D, 0x4D, 0x24, 0x15, 0x22, 0xB3, 0x26, 0x32, 0xCB, 0x6F, 0x07, 0xAA, 0x2E, 0x23, 0x38, 0x6E, 0x16, 0x46, 0xA8, 0x11, 0xC5, 0x68, 0x99, 0xE1, 0x85, 0xF8, 0xE6, 0xF5, 0x24, 0x5F, 0xA3, 0x28, 0x40, 0xBD, 0xB3, 0x30, 0x83, 0x53, 0xDF, 0x10, 0x8C, 0xB5, 0xB8, 0x4D, 0xAD, 0xFC, 0xEC, 0x61, 0xDC, 0x63, 0xF3, 0xF5, 0x5D, 0x31, 0xA7, 0x3F, 0x4B, 0xAF, 0xB1, 0x3A, 0x2D, 0x8C, 0x26, 0x10, 0x8B, 0x49, 0x45, 0x54, 0x45, 0x98, 0x63, 0x60, 0x71, 0x24, 0xEB, 0xDB, 0xB3, 0x6B, 0x32, 0x5B, 0xA6, 0x06, 0xB4, 0x90, 0x45, 0xDF, 0x08, 0xD7, 0xC1, 0x50, 0xBC, 0x6A, 0xA7, 0x0C, 0xDB, 0xC2, 0xB1, 0x6E, 0xEC, 0xB6, 0xD4, 0x12, 0xDC, 0xEE, 0xBD, 0x62, 0xB2, 0xB4, 0x55, 0x0C, 0xA9, 0x1C, 0x71, 0x9A, 0xEC, 0x90, 0x6C, 0x3B, 0x07, 0xCF, 0x6B, 0x25, 0xAA, 0xE3, 0xE1, 0x53, 0x47, 0x3A, 0x51, 0xEE, 0xE8, 0xC7, 0xD4, 0x8A, 0xBC, 0xB4, 0x10, 0xE2, 0x0C, 0xC2, 0x18, 0xEF, 0x71, 0x6C, 0x8D, 0x27, 0x6F, 0x5A, 0xFE, 0x40, 0x68, 0x43, 0xCE, 0xA5, 0xCA, 0x4D, 0x92, 0xF7, 0xF5, 0xF0, 0xA2, 0x87, 0xD9, 0x1F, 0x18, 0xDA, 0xBD, 0xCA, 0x30, 0x30, 0x0B, 0x6F, 0x0E, 0xD4, 0xA1, 0xD6, 0x49, 0xD1, 0x20, 0xB0, 0x87, 0x88, 0x29, 0xC4, 0x1C, 0x5B, 0x55, 0x45, 0x05, 0x29, 0xDD, 0x15, 0x2F, 0xC8, 0xEA, 0xE1, 0x22, 0x0C, 0x03, 0xF4, 0x0B, 0x07, 0x5F, 0xAE, 0x08, 0xD8, 0xCC, 0x13, 0xDF, 0xCF, 0x46, 0x08, 0xFE, 0x45, 0xFE, 0xB6, 0x66, 0xB5, 0x95, 0x53, 0xDE, 0xDC, 0x2B, 0xF3, 0xBB, 0x45, 0xE2, 0xE3, 0x8B, 0x33, 0x5D, 0xA0, 0x09, 0x27, 0xAD, 0x0F, 0x9D, 0x23, 0xA6, 0x97, 0x57, 0x2C, 0x0B, 0xBE, 0xFF, 0xC1, 0xC0, 0x8F, 0xB3, 0x56, 0x11, 0xCC, 0xE2, 0x99, 0xF1, 0xC2, 0x8E, 0xB4, 0x6E, 0xCD, 0x34, 0x64, 0x2B, 0xE0, 0xCE, 0xB6, 0xA5, 0xFF, 0x12, 0x8A, 0x5E, 0xDC, 0xFA, 0xDB, 0x45, 0x8A, 0xD8, 0xFF, 0xFF, 0x00, 0x00, 0x00, 0x09, 0x10, 0x00, 0x00, 0x00, 0x17, 0x00, 0x00, 0x00, 0x14, 0x00, 0x00, 0x00, 0x78, 0x00, 0x00, 0x00, 0x02, 0x00, 0x00, 0x00, 0x04, 0x00, 0x00, 0x00, 0x00, 0x02, 0x00, 0x00, 0x63, 0x00, 0x00, 0x00, 0x73, 0x65, 0x71, 0x75, 0x65, 0x6E, 0x74, 0x69, 0x61, 0x6C, 0x5F, 0x31, 0x2F, 0x71, 0x75, 0x61, 0x6E, 0x74, 0x5F, 0x64, 0x65, 0x6E, 0x73, 0x65, 0x5F, 0x32, 0x2F, 0x4D, 0x61, 0x74, 0x4D, 0x75, 0x6C, 0x3B, 0x73, 0x65, 0x71, 0x75, 0x65, 0x6E, 0x74, 0x69, 0x61, 0x6C, 0x5F, 0x31, 0x2F, 0x71, 0x75, 0x61, 0x6E, 0x74, 0x5F, 0x64, 0x65, 0x6E, 0x73, 0x65, 0x5F, 0x32, 0x2F, 0x4C, 0x61, 0x73, 0x74, 0x56, 0x61, 0x6C, 0x75, 0x65, 0x51, 0x75, 0x61, 0x6E, 0x74, 0x2F, 0x46, 0x61, 0x6B, 0x65, 0x51, 0x75, 0x61, 0x6E, 0x74, 0x57, 0x69, 0x74, 0x68, 0x4D, 0x69, 0x6E, 0x4D, 0x61, 0x78, 0x56, 0x61, 0x72, 0x73, 0x00, 0x18, 0xDA, 0xFF, 0xFF, 0x08, 0x00, 0x00, 0x00, 0x0C, 0x00, 0x00, 0x00, 0x01, 0x00, 0x00, 0x00, 0xFC, 0xF4, 0x69, 0x3A, 0x01, 0x00, 0x00, 0x00, 0x00, 0x00, 0x00, 0x00, 0x00, 0x00, 0x00, 0x00, 0x00, 0x00, 0x0A, 0x00, 0x10, 0x00, 0x04, 0x00, 0x08, 0x00, 0x0C, 0x00, 0x0A, 0x00, 0x00, 0x00, 0x03, 0x00, 0x00, 0x00, 0x10, 0x00, 0x00, 0x00, 0x04, 0x00, 0x00, 0x00, 0x01, 0x00, 0x00, 0x00, 0x15, 0x00, 0x00, 0x00, 0x02, 0x00, 0x00, 0x00, 0x14, 0x00, 0x00, 0x00, 0x01, 0x00, 0x00, 0x00, 0x74, 0xE2, 0xFF, 0xFF, 0x16, 0x00, 0x00, 0x00, 0x00, 0x00, 0x00, 0x16, 0x01, 0x00, 0x00, 0x00, 0x68, 0xE2, 0xFF, 0xFF, 0x00, 0x00, 0x00, 0x09, 0x14, 0x00, 0x00, 0x00, 0x16, 0x00, 0x00, 0x00, 0x24, 0x00, 0x00, 0x00, 0x4C, 0x00, 0x00, 0x00, 0x10, 0x00, 0x00, 0x00, 0x02, 0x00, 0x00, 0x00, 0x01, 0x00, 0x00, 0x00, 0x00, 0x02, 0x00, 0x00, 0x02, 0x00, 0x00, 0x00, 0xFF, 0xFF, 0xFF, 0xFF, 0x00, 0x02, 0x00, 0x00, 0x24, 0x00, 0x00, 0x00, 0x73, 0x65, 0x71, 0x75, 0x65, 0x6E, 0x74, 0x69, 0x61, 0x6C, 0x5F, 0x31, 0x2F, 0x71, 0x75, 0x61, 0x6E, 0x74, 0x5F, 0x66, 0x6C, 0x61, 0x74, 0x74, 0x65, 0x6E, 0x5F, 0x31, 0x2F, 0x52, 0x65, 0x73, 0x68, 0x61, 0x70, 0x65, 0x00, 0x00, 0x00, 0x00, 0xD8, 0xDA, 0xFF, 0xFF, 0x08, 0x00, 0x00, 0x00, 0x0C, 0x00, 0x00, 0x00, 0x01, 0x00, 0x00, 0x00, 0x4B, 0xE0, 0x3F, 0x3D, 0x01, 0x00, 0x00, 0x00, 0xFF, 0xFF, 0xFF, 0xFF, 0xFF, 0xFF, 0xFF, 0xFF, 0xBE, 0xE5, 0xFF, 0xFF, 0x00, 0x00, 0x00, 0x05, 0x02, 0x00, 0x00, 0x00, 0x28, 0x00, 0x00, 0x00, 0x1C, 0x00, 0x00, 0x00, 0x04, 0x00, 0x00, 0x00, 0xAE, 0xE6, 0xFF, 0xFF, 0x02, 0x00, 0x00, 0x00, 0x02, 0x00, 0x00, 0x00, 0x02, 0x00, 0x00, 0x00, 0x02, 0x00, 0x00, 0x00, 0x01, 0x00, 0x00, 0x00, 0x14, 0x00, 0x00, 0x00, 0x01, 0x00, 0x00, 0x00, 0x13, 0x00, 0x00, 0x00, 0x24, 0xE3, 0xFF, 0xFF, 0x00, 0x00, 0x00, 0x09, 0x14, 0x00, 0x00, 0x00, 0x15, 0x00, 0x00, 0x00, 0x34, 0x00, 0x00, 0x00, 0x60, 0x00, 0x00, 0x00, 0x18, 0x00, 0x00, 0x00, 0x04, 0x00, 0x00, 0x00, 0x01, 0x00, 0x00, 0x00, 0x01, 0x00, 0x00, 0x00, 0x20, 0x00, 0x00, 0x00, 0x10, 0x00, 0x00, 0x00, 0x04, 0x00, 0x00, 0x00, 0xFF, 0xFF, 0xFF, 0xFF, 0x01, 0x00, 0x00, 0x00, 0x20, 0x00, 0x00, 0x00, 0x10, 0x00, 0x00, 0x00, 0x2A, 0x00, 0x00, 0x00, 0x73, 0x65, 0x71, 0x75, 0x65, 0x6E, 0x74, 0x69, 0x61, 0x6C, 0x5F, 0x31, 0x2F, 0x71, 0x75, 0x61, 0x6E, 0x74, 0x5F, 0x6D, 0x61, 0x78, 0x5F, 0x70, 0x6F, 0x6F, 0x6C, 0x69, 0x6E, 0x67, 0x32, 0x64, 0x5F, 0x37, 0x2F, 0x4D, 0x61, 0x78, 0x50, 0x6F, 0x6F, 0x6C, 0x00, 0x00, 0xA8, 0xDB, 0xFF, 0xFF, 0x08, 0x00, 0x00, 0x00, 0x0C, 0x00, 0x00, 0x00, 0x01, 0x00, 0x00, 0x00, 0x4B, 0xE0, 0x3F, 0x3D, 0x01, 0x00, 0x00, 0x00, 0xFF, 0xFF, 0xFF, 0xFF, 0xFF, 0xFF, 0xFF, 0xFF, 0x8E, 0xE6, 0xFF, 0xFF, 0x00, 0x00, 0x00, 0x01, 0x01, 0x00, 0x00, 0x00, 0x24, 0x00, 0x00, 0x00, 0x18, 0x00, 0x00, 0x00, 0x04, 0x00, 0x00, 0x00, 0x80, 0xE6, 0xFF, 0xFF, 0x01, 0x00, 0x00, 0x00, 0x01, 0x00, 0x00, 0x00, 0x00, 0x00, 0x00, 0x01, 0x01, 0x00, 0x00, 0x00, 0x13, 0x00, 0x00, 0x00, 0x03, 0x00, 0x00, 0x00, 0x11, 0x00, 0x00, 0x00, 0x12, 0x00, 0x00, 0x00, 0x02, 0x00, 0x00, 0x00, 0xF8, 0xE3, 0xFF, 0xFF, 0x00, 0x00, 0x00, 0x09, 0x14, 0x00, 0x00, 0x00, 0x14, 0x00, 0x00, 0x00, 0x34, 0x00, 0x00, 0x00, 0xFC, 0x00, 0x00, 0x00, 0x18, 0x00, 0x00, 0x00, 0x04, 0x00, 0x00, 0x00, 0x01, 0x00, 0x00, 0x00, 0x01, 0x00, 0x00, 0x00, 0x3F, 0x00, 0x00, 0x00, 0x10, 0x00, 0x00, 0x00, 0x04, 0x00, 0x00, 0x00, 0xFF, 0xFF, 0xFF, 0xFF, 0x01, 0x00, 0x00, 0x00, 0x3F, 0x00, 0x00, 0x00, 0x10, 0x00, 0x00, 0x00, 0xC6, 0x00, 0x00, 0x00, 0x73, 0x65, 0x71, 0x75, 0x65, 0x6E, 0x74, 0x69, 0x61, 0x6C, 0x5F, 0x31, 0x2F, 0x71, 0x75, 0x61, 0x6E, 0x74, 0x5F, 0x63, 0x6F, 0x6E, 0x76, 0x32, 0x64, 0x5F, 0x37, 0x2F, 0x52, 0x65, 0x6C, 0x75, 0x3B, 0x73, 0x65, 0x71, 0x75, 0x65, 0x6E, 0x74, 0x69, 0x61, 0x6C, 0x5F, 0x31, 0x2F, 0x71, 0x75, 0x61, 0x6E, 0x74, 0x5F, 0x63, 0x6F, 0x6E, 0x76, 0x32, 0x64, 0x5F, 0x37, 0x2F, 0x42, 0x69, 0x61, 0x73, 0x41, 0x64, 0x64, 0x3B, 0x73, 0x65, 0x71, 0x75, 0x65, 0x6E, 0x74, 0x69, 0x61, 0x6C, 0x5F, 0x31, 0x2F, 0x71, 0x75, 0x61, 0x6E, 0x74, 0x5F, 0x63, 0x6F, 0x6E, 0x76, 0x32, 0x64, 0x5F, 0x36, 0x2F, 0x43, 0x6F, 0x6E, 0x76, 0x32, 0x44, 0x3B, 0x73, 0x65, 0x71, 0x75, 0x65, 0x6E, 0x74, 0x69, 0x61, 0x6C, 0x5F, 0x31, 0x2F, 0x71, 0x75, 0x61, 0x6E, 0x74, 0x5F, 0x63, 0x6F, 0x6E, 0x76, 0x32, 0x64, 0x5F, 0x37, 0x2F, 0x43, 0x6F, 0x6E, 0x76, 0x32, 0x44, 0x3B, 0x73, 0x65, 0x71, 0x75, 0x65, 0x6E, 0x74, 0x69, 0x61, 0x6C, 0x5F, 0x31, 0x2F, 0x71, 0x75, 0x61, 0x6E, 0x74, 0x5F, 0x63, 0x6F, 0x6E, 0x76, 0x32, 0x64, 0x5F, 0x37, 0x2F, 0x42, 0x69, 0x61, 0x73, 0x41, 0x64, 0x64, 0x2F, 0x52, 0x65, 0x61, 0x64, 0x56, 0x61, 0x72, 0x69, 0x61, 0x62, 0x6C, 0x65, 0x4F, 0x70, 0x2F, 0x72, 0x65, 0x73, 0x6F, 0x75, 0x72, 0x63, 0x65, 0x00, 0x00, 0x18, 0xDD, 0xFF, 0xFF, 0x08, 0x00, 0x00, 0x00, 0x0C, 0x00, 0x00, 0x00, 0x01, 0x00, 0x00, 0x00, 0x4B, 0xE0, 0x3F, 0x3D, 0x01, 0x00, 0x00, 0x00, 0xFF, 0xFF, 0xFF, 0xFF, 0xFF, 0xFF, 0xFF, 0xFF, 0x52, 0xDC, 0xFF, 0xFF, 0x04, 0x00, 0x00, 0x00, 0x00, 0x09, 0x00, 0x00, 0x8E, 0x02, 0x3C, 0xD1, 0x46, 0x2D, 0xD7, 0xAB, 0x64, 0x69, 0x3F, 0x6B, 0x0B, 0x09, 0x50, 0x94, 0x07, 0x9D, 0x1E, 0x77, 0x11, 0x5C, 0x19, 0x08, 0xE6, 0x99, 0x45, 0xED, 0x38, 0x3E, 0xB0, 0xA1, 0xBA, 0x46, 0x7C, 0x9D, 0x9F, 0x15, 0x57, 0x06, 0xBD, 0xE5, 0x59, 0x3B, 0xB5, 0xE4, 0x9E, 0xBE, 0x72, 0x3F, 0x27, 0x0E, 0xCA, 0x33, 0xBF, 0xA5, 0xD9, 0x26, 0xF1, 0x12, 0x0D, 0x8C, 0xBE, 0x0D, 0x66, 0x9D, 0x92, 0x1E, 0x2A, 0x97, 0xF0, 0x69, 0xDC, 0x5D, 0x4C, 0xEF, 0x5A, 0xF2, 0x4C, 0x3B, 0xE4, 0x6E, 0xDD, 0xA4, 0xDE, 0xF6, 0x32, 0x70, 0x89, 0x2E, 0x91, 0x91, 0x1A, 0x56, 0xFA, 0xD3, 0xBD, 0xAC, 0xE5, 0xBF, 0x8C, 0xA0, 0x8C, 0x3E, 0xBA, 0x2B, 0x8B, 0x72, 0x7F, 0xB8, 0x71, 0x68, 0xD9, 0x4D, 0xAB, 0xD5, 0x17, 0x51, 0x09, 0x7A, 0xCF, 0x5D, 0xAB, 0xDD, 0x83, 0x49, 0x0A, 0xBD, 0xEA, 0x9F, 0xE9, 0x89, 0x00, 0x0D, 0xE0, 0xEC, 0xD1, 0x07, 0x51, 0x4B, 0xD2, 0x00, 0x4C, 0x0E, 0x4E, 0xCA, 0x89, 0x6E, 0x20, 0xD1, 0x23, 0x6E, 0x0A, 0x34, 0x5F, 0x72, 0xAA, 0xF9, 0x53, 0xE2, 0x74, 0x99, 0x7A, 0x6B, 0x8E, 0xF6, 0xEB, 0x27, 0xAE, 0x61, 0xF7, 0xD3, 0x88, 0x82, 0xAE, 0xCD, 0x33, 0x8E, 0x0E, 0x6E, 0x3C, 0x89, 0xBB, 0x25, 0x0D, 0x2F, 0x48, 0x41, 0x29, 0x8C, 0x81, 0x79, 0xBC, 0xE0, 0x45, 0x2C, 0x51, 0x9E, 0x46, 0x2F, 0x67, 0x9A, 0x83, 0x03, 0x73, 0xAA, 0xB5, 0xFB, 0xCB, 0xCC, 0xD0, 0x32, 0x66, 0x55, 0x70, 0xD2, 0xB4, 0xDF, 0x42, 0x96, 0x4A, 0x9F, 0xD3, 0x2C, 0xB9, 0xE0, 0x11, 0xF1, 0xC7, 0xD5, 0x23, 0x17, 0x6A, 0x69, 0xD5, 0x3F, 0xCD, 0x07, 0xEE, 0x7C, 0xB7, 0x54, 0x48, 0xD6, 0xFF, 0xD5, 0x70, 0x37, 0x1E, 0x89, 0xC4, 0x84, 0xBE, 0x93, 0xB1, 0xAB, 0xC9, 0x60, 0xB7, 0x78, 0xAC, 0x15, 0xA4, 0x16, 0x92, 0xDB, 0x4A, 0x01, 0xC8, 0x17, 0x31, 0x39, 0x3A, 0xC0, 0x4B, 0xA1, 0x04, 0x15, 0x4E, 0x34, 0x6F, 0xB8, 0xEA, 0x49, 0x0D, 0x1A, 0xAA, 0x2B, 0x51, 0xD1, 0xB9, 0xBA, 0x76, 0xD9, 0x92, 0xA4, 0x40, 0x39, 0xB6, 0x14, 0xE9, 0x2C, 0xEC, 0xAC, 0xBC, 0xCB, 0x5C, 0x8E, 0x14, 0xD1, 0x5C, 0x16, 0x62, 0x15, 0x37, 0xAD, 0xB3, 0xD6, 0xC3, 0x72, 0x5D, 0xE3, 0xD4, 0x71, 0x50, 0x6B, 0x8D, 0x91, 0xA2, 0xAD, 0x62, 0x2F, 0x24, 0x09, 0x21, 0x57, 0x9A, 0xB4, 0x0E, 0xF7, 0x16, 0x03, 0x6C, 0x72, 0xAF, 0x6A, 0x56, 0x27, 0xCC, 0x57, 0x81, 0x49, 0xF1, 0x65, 0x73, 0x45, 0x86, 0x4A, 0x15, 0x2C, 0x3A, 0x54, 0x05, 0x7A, 0xF3, 0x95, 0xD8, 0x4D, 0xBF, 0xAF, 0x6D, 0xE1, 0xB3, 0xF0, 0x0B, 0xE8, 0x00, 0xE1, 0xD4, 0x5C, 0x81, 0xBF, 0x66, 0xA2, 0x87, 0xDB, 0x09, 0x9B, 0x6E, 0x67, 0xB0, 0x89, 0x41, 0xCD, 0x3A, 0x21, 0xEA, 0x03, 0x3F, 0x7A, 0x61, 0xD8, 0xCF, 0xFC, 0x7B, 0x3E, 0xB0, 0x30, 0x10, 0xBE, 0xFA, 0x07, 0x83, 0xDD, 0x87, 0x0C, 0x6B, 0x3B, 0xBA, 0x22, 0x67, 0x37, 0x74, 0xC4, 0x43, 0x41, 0x63, 0x4E, 0xBD, 0x27, 0xFA, 0x38, 0x7B, 0x21, 0xA1, 0x8F, 0x55, 0x29, 0x29, 0x36, 0x41, 0x76, 0xC0, 0xEF, 0x3A, 0x52, 0x0A, 0x15, 0xC9, 0x8F, 0x66, 0x48, 0xB1, 0x35, 0xE3, 0xC3, 0xD3, 0x51, 0x75, 0xA5, 0x92, 0x50, 0x3C, 0x74, 0x8A, 0xAA, 0x59, 0x9C, 0x3F, 0x09, 0xB2, 0x52, 0xD0, 0xDD, 0xB9, 0xFF, 0x92, 0x7B, 0xCB, 0x69, 0x24, 0x9F, 0xD0, 0x29, 0x2E, 0x72, 0x64, 0x58, 0xF8, 0xA8, 0x9D, 0x8C, 0xB5, 0x2A, 0x26, 0xD4, 0xCF, 0x5F, 0xAC, 0x48, 0x2A, 0xC9, 0x10, 0x51, 0xD5, 0x15, 0xA8, 0xB4, 0x6A, 0xE2, 0x6E, 0x0C, 0x7C, 0x21, 0x68, 0x36, 0xD6, 0x25, 0x7F, 0xAF, 0xF9, 0x69, 0x25, 0x31, 0xE2, 0xFC, 0x94, 0xE7, 0x1D, 0xBC, 0x69, 0x65, 0xF3, 0xEE, 0x70, 0xBD, 0x57, 0x15, 0xFE, 0x44, 0x99, 0xD4, 0x97, 0x3B, 0x97, 0x8F, 0xFE, 0x52, 0x87, 0x2F, 0xBD, 0x14, 0x55, 0xAA, 0xFF, 0x49, 0xDB, 0x3E, 0xFF, 0x32, 0x29, 0x64, 0xA5, 0xD9, 0xF2, 0x17, 0x06, 0xE2, 0xDA, 0x5F, 0xE4, 0xAF, 0x97, 0xB3, 0xDB, 0xF2, 0x7F, 0xB3, 0xAB, 0xA6, 0xAB, 0x8D, 0x8F, 0x5A, 0xD7, 0xD9, 0xC3, 0x96, 0x0D, 0x42, 0x70, 0xC0, 0xB3, 0x0E, 0x93, 0x14, 0x21, 0xBE, 0x1F, 0x3F, 0xAE, 0xBC, 0x99, 0xDC, 0x50, 0xE4, 0x20, 0xA2, 0xD7, 0x4F, 0x34, 0x4A, 0xE6, 0x2A, 0x6A, 0x5D, 0x16, 0xD4, 0x91, 0x1D, 0x75, 0xF8, 0x27, 0xA6, 0xFF, 0x82, 0x58, 0x2A, 0x13, 0x78, 0xA3, 0x4E, 0xF5, 0x71, 0xF1, 0x41, 0x76, 0xCA, 0xF5, 0x2D, 0x63, 0x1E, 0xFD, 0xC4, 0x86, 0x9D, 0x24, 0x13, 0xF6, 0x66, 0x93, 0xF4, 0x32, 0xE9, 0x8B, 0xEE, 0xA1, 0xFF, 0xB6, 0xD1, 0xA7, 0xE2, 0x5D, 0x6B, 0x3A, 0x15, 0x3F, 0xF4, 0x83, 0x9E, 0xB0, 0xCE, 0xA4, 0xDE, 0xF5, 0x19, 0x6A, 0x57, 0x33, 0x24, 0xBF, 0xBB, 0x2D, 0xC3, 0xC0, 0xF2, 0x90, 0x5D, 0x7B, 0x49, 0x69, 0x06, 0xA1, 0x68, 0x9D, 0x7A, 0xE3, 0xAF, 0x03, 0x6A, 0xEB, 0x86, 0xA3, 0x6B, 0xB8, 0x92, 0x65, 0x25, 0x4E, 0x84, 0x8F, 0xAA, 0x3F, 0x0B, 0xFE, 0xFA, 0xA5, 0xC6, 0xAB, 0x27, 0x1D, 0x34, 0x0C, 0x45, 0x1A, 0x2F, 0x19, 0x72, 0xA2, 0x27, 0x45, 0x97, 0xF2, 0xB3, 0x2C, 0x4F, 0xDB, 0xAA, 0x43, 0x05, 0x2F, 0xFE, 0x88, 0xD6, 0xD9, 0xB6, 0xE0, 0x5B, 0x08, 0x35, 0x23, 0x0A, 0x6B, 0x5B, 0xB0, 0x2F, 0x51, 0xC1, 0x06, 0x8B, 0x5D, 0x24, 0x8B, 0x5D, 0x85, 0xF3, 0x54, 0xE2, 0x8A, 0x18, 0x9A, 0x5D, 0x42, 0xEC, 0x70, 0x75, 0xB6, 0xF2, 0xB0, 0xD6, 0x03, 0x0D, 0x35, 0x71, 0x58, 0x9F, 0xB7, 0x86, 0x98, 0x7E, 0x73, 0x4C, 0xE5, 0xE5, 0x19, 0xBF, 0xEA, 0xC8, 0x53, 0xA0, 0x34, 0xC5, 0xB2, 0xC4, 0x75, 0x25, 0x36, 0x67, 0xD2, 0x23, 0x13, 0x14, 0xFA, 0xAA, 0xE6, 0x31, 0x7E, 0xBE, 0x96, 0xFC, 0x09, 0xE0, 0x04, 0x30, 0xC7, 0x4B, 0x54, 0x4F, 0x0D, 0x46, 0x4E, 0x0A, 0x97, 0x9D, 0x1A, 0xDD, 0x8B, 0x20, 0xEE, 0x53, 0xA0, 0xD4, 0x47, 0xDE, 0x42, 0xBC, 0xF0, 0x04, 0x67, 0x6B, 0xE3, 0xA8, 0x1A, 0xF1, 0x3E, 0x22, 0x22, 0x71, 0x84, 0x23, 0x71, 0x1A, 0x7F, 0x40, 0xA2, 0xB2, 0x34, 0xC2, 0x2A, 0x05, 0x9A, 0xDA, 0x78, 0xA5, 0x6B, 0x6E, 0xE6, 0x63, 0xC2, 0x34, 0x13, 0xFE, 0x9C, 0x4A, 0x74, 0xAC, 0x40, 0x83, 0xA7, 0xF4, 0x34, 0x9D, 0x3F, 0xFE, 0x47, 0x04, 0xA8, 0xA6, 0x9F, 0x13, 0x75, 0x8A, 0x3E, 0xFA, 0x17, 0xA6, 0x66, 0x36, 0x15, 0xB4, 0xD6, 0xAF, 0x8A, 0x0F, 0x52, 0x4E, 0xD4, 0x3F, 0xCC, 0x34, 0x19, 0xC4, 0x71, 0xDF, 0xA0, 0x3E, 0x2A, 0xAC, 0x3C, 0xDC, 0x28, 0x09, 0x3F, 0x79, 0x25, 0x95, 0xC3, 0xB6, 0xA0, 0x8B, 0x26, 0xE3, 0x30, 0x74, 0x14, 0xD5, 0x20, 0xEE, 0x91, 0x65, 0xFE, 0x00, 0x1C, 0xF7, 0x6A, 0x81, 0x65, 0xB6, 0xFC, 0xE8, 0xF8, 0x97, 0x48, 0x4F, 0xBD, 0x17, 0x85, 0x05, 0x3F, 0x7C, 0x39, 0x95, 0x88, 0x49, 0x94, 0x77, 0x33, 0x8A, 0xC0, 0x3D, 0x49, 0x5C, 0x40, 0x6E, 0x06, 0x30, 0x6A, 0xAE, 0xF9, 0xE2, 0xF6, 0x1E, 0x8A, 0xFA, 0x9C, 0x0D, 0x6C, 0x4D, 0xD4, 0xD7, 0xB0, 0xF1, 0x2D, 0x48, 0x30, 0x11, 0x87, 0xDB, 0xDF, 0x52, 0xF3, 0xD7, 0xA9, 0x87, 0x28, 0x0E, 0x67, 0x5A, 0x75, 0xF4, 0x90, 0x78, 0x12, 0xF8, 0x2C, 0xD9, 0x2E, 0x03, 0x63, 0xFF, 0xD3, 0x3B, 0x91, 0x16, 0xF8, 0x76, 0x58, 0xBC, 0xC5, 0x3C, 0xF2, 0xE0, 0xA8, 0x60, 0x40, 0x0E, 0xC0, 0xCB, 0x97, 0xAE, 0x6A, 0xCF, 0x79, 0x47, 0x20, 0x68, 0x4F, 0x8D, 0x92, 0x57, 0x2D, 0x55, 0xE5, 0xE1, 0x8F, 0xFD, 0x2E, 0xB4, 0x84, 0xD0, 0x99, 0xB7, 0x43, 0x15, 0x60, 0xB3, 0x05, 0x8E, 0x61, 0x66, 0xC1, 0xD6, 0x96, 0x57, 0xF6, 0x0E, 0x10, 0x0E, 0x93, 0x1F, 0x0D, 0x2F, 0xC6, 0x45, 0x23, 0xAC, 0x81, 0x9E, 0xE8, 0xA4, 0xB8, 0xCB, 0x21, 0xE0, 0x3D, 0x1E, 0x35, 0x3E, 0x43, 0xD3, 0xE9, 0x8F, 0xA8, 0x6E, 0x3C, 0xED, 0x12, 0x0E, 0xC1, 0x13, 0xD2, 0x33, 0xBC, 0xBF, 0xDB, 0x57, 0x2B, 0x3B, 0x24, 0x8D, 0xC1, 0x0A, 0xAF, 0x71, 0xA4, 0x42, 0x24, 0x9E, 0xE2, 0x0C, 0xBF, 0x31, 0xBE, 0xAF, 0x56, 0x88, 0x5A, 0x4D, 0x49, 0x35, 0x28, 0xB4, 0x79, 0x26, 0xA0, 0xBA, 0x91, 0x1A, 0x12, 0x1C, 0x8C, 0xA9, 0x9B, 0x49, 0xDD, 0xA7, 0xBB, 0xDE, 0x88, 0x28, 0x69, 0x09, 0x44, 0x06, 0x8A, 0x02, 0xB8, 0xC7, 0xB3, 0x46, 0xDD, 0xBB, 0xF6, 0x71, 0xA3, 0xB1, 0xA7, 0x39, 0x46, 0x92, 0xEB, 0xA9, 0x08, 0x98, 0x58, 0x68, 0x83, 0x44, 0x7C, 0x1E, 0x67, 0x78, 0x3E, 0xE0, 0xDC, 0x23, 0x10, 0x51, 0x1E, 0xD2, 0xFB, 0x66, 0x68, 0x70, 0xF3, 0xCF, 0xC4, 0x0C, 0x19, 0x31, 0x0D, 0x20, 0x12, 0xF9, 0x5C, 0x46, 0x52, 0xC3, 0x16, 0xAD, 0xF0, 0xAD, 0xBA, 0x54, 0xF5, 0x3E, 0x51, 0x58, 0x0C, 0xC1, 0xF6, 0xF8, 0xE6, 0x00, 0x18, 0x60, 0xAE, 0x0B, 0xB1, 0x71, 0xF5, 0xDA, 0x4C, 0xA5, 0x50, 0xE0, 0xEB, 0xEA, 0x3C, 0xA8, 0xEB, 0x56, 0xD7, 0x3B, 0x79, 0x63, 0x07, 0xE6, 0x9C, 0xD1, 0xD9, 0xEC, 0x81, 0xB5, 0xCB, 0x53, 0x58, 0xBB, 0x1B, 0x9A, 0x00, 0xF1, 0x04, 0xEF, 0x03, 0x48, 0x30, 0xA8, 0x41, 0x21, 0x07, 0x97, 0x57, 0x5A, 0xFC, 0xC2, 0x13, 0xE2, 0xD6, 0xB7, 0x65, 0xD6, 0xBD, 0x1D, 0xCF, 0x92, 0x16, 0xD1, 0x00, 0xB7, 0x70, 0xC1, 0xC6, 0x21, 0xFE, 0x99, 0x06, 0x7F, 0xAF, 0x89, 0x86, 0x11, 0x48, 0xE8, 0x3C, 0xA0, 0x71, 0x8D, 0x40, 0x8E, 0x4F, 0x08, 0x82, 0xC6, 0x4C, 0x77, 0x0F, 0x17, 0x9A, 0x4F, 0x52, 0xA8, 0xDF, 0x68, 0x62, 0xAA, 0x28, 0x4B, 0x01, 0x5D, 0xAA, 0xDB, 0x65, 0xBF, 0xE2, 0x29, 0x90, 0x77, 0x1C, 0xBF, 0x1B, 0x59, 0x0C, 0xDC, 0x7F, 0x38, 0xF1, 0xC8, 0xFA, 0x5B, 0xD6, 0x75, 0x75, 0x05, 0xC0, 0xE3, 0x3D, 0x4B, 0x5B, 0x00, 0x40, 0x4C, 0x05, 0xB9, 0xC9, 0x1A, 0xAA, 0xF7, 0xE9, 0x91, 0x09, 0xA7, 0x98, 0xC8, 0x95, 0xDE, 0x38, 0xE3, 0x89, 0x16, 0x00, 0x6D, 0xD6, 0x36, 0x6B, 0x86, 0x09, 0x84, 0x86, 0x94, 0xA3, 0x4D, 0xAB, 0x20, 0x72, 0x9E, 0x57, 0x8D, 0x6C, 0xAD, 0xE4, 0x6A, 0x30, 0x4D, 0xCE, 0xDF, 0x57, 0x10, 0x41, 0x58, 0x9C, 0xF0, 0xAE, 0x2C, 0x7B, 0xAD, 0xDA, 0x28, 0xB7, 0xDC, 0x13, 0x46, 0x4C, 0x24, 0x2C, 0x4B, 0x57, 0xF3, 0x0F, 0xAD, 0x5E, 0x37, 0xE4, 0xD8, 0x3B, 0x81, 0x75, 0x0B, 0x4B, 0x15, 0x4D, 0xED, 0x73, 0x7B, 0xC2, 0x6B, 0x5F, 0xFB, 0x71, 0xD3, 0xED, 0x52, 0xE6, 0x2A, 0xF5, 0xF0, 0xB2, 0x4F, 0x0E, 0x09, 0x1A, 0x4F, 0x36, 0x73, 0x85, 0x65, 0xAC, 0x11, 0xC1, 0x66, 0xAC, 0xCF, 0x5B, 0x87, 0x49, 0x42, 0x6F, 0xD9, 0x34, 0x05, 0x41, 0x01, 0x25, 0x5D, 0xAC, 0xA9, 0xA6, 0xC7, 0xBC, 0xE5, 0x8F, 0xD8, 0x32, 0xBE, 0xA2, 0xA5, 0x6C, 0x72, 0xDD, 0x77, 0x67, 0xA8, 0xCF, 0x5E, 0xAC, 0x50, 0x10, 0x14, 0xFA, 0x91, 0x90, 0x53, 0xC4, 0x1B, 0xAF, 0xE9, 0x63, 0xAD, 0x08, 0x1E, 0xE7, 0xA5, 0xA0, 0xFB, 0x6D, 0x76, 0xD8, 0x86, 0x5A, 0x83, 0xDD, 0x0D, 0x6B, 0xC0, 0xEF, 0x43, 0x8D, 0x8E, 0x14, 0x61, 0x52, 0xFB, 0x01, 0x06, 0x65, 0xA3, 0x44, 0x22, 0x40, 0xD2, 0xE7, 0xE0, 0x14, 0xB6, 0x2A, 0x5C, 0x50, 0x8B, 0x59, 0xE6, 0xE0, 0xEE, 0xCA, 0xC5, 0xB7, 0x6B, 0xE5, 0x14, 0x83, 0x7A, 0x2A, 0x0E, 0x64, 0x54, 0xCF, 0xDE, 0xFE, 0x9D, 0x15, 0x43, 0x99, 0xBA, 0x57, 0x53, 0xF3, 0x53, 0x2E, 0x02, 0xAA, 0x9A, 0xF9, 0x1B, 0x8F, 0x35, 0xE5, 0x77, 0x78, 0x41, 0x95, 0x91, 0xF6, 0x1B, 0x3F, 0xD6, 0x36, 0x18, 0x23, 0xD2, 0x1D, 0x31, 0xF8, 0x66, 0xAE, 0xC1, 0x1B, 0xA4, 0xF7, 0x75, 0x74, 0x3B, 0xB3, 0xBD, 0xB7, 0xBE, 0x53, 0xCE, 0xE8, 0x46, 0x9B, 0x22, 0xEA, 0xA9, 0x4C, 0xB3, 0xA6, 0x62, 0x7F, 0xAC, 0x5A, 0x61, 0x02, 0xCC, 0xE2, 0x8B, 0xCA, 0xFC, 0x74, 0xFD, 0xF0, 0x9C, 0x26, 0x55, 0xF1, 0x11, 0x5A, 0x2F, 0x3E, 0x6D, 0x95, 0xF5, 0x07, 0xBA, 0x9E, 0x4E, 0xB2, 0x25, 0x50, 0xA2, 0xC2, 0x9A, 0xA2, 0xBC, 0x3C, 0x8D, 0x19, 0xF1, 0xF5, 0xB7, 0xD9, 0xE4, 0x51, 0x04, 0x3F, 0x7B, 0x9A, 0xF1, 0x6D, 0xEA, 0xD2, 0x2E, 0x99, 0x4C, 0x66, 0xAE, 0x28, 0xBD, 0x74, 0x64, 0x13, 0x4D, 0x06, 0x1E, 0x2E, 0x5C, 0x9A, 0x96, 0x14, 0x59, 0x7C, 0x9F, 0x6D, 0x2E, 0xEC, 0x81, 0x49, 0xB9, 0xDF, 0x29, 0x7E, 0x04, 0x22, 0x60, 0xD5, 0x4A, 0xD8, 0x4D, 0x03, 0x2F, 0x25, 0x17, 0x84, 0x46, 0x91, 0xB9, 0x07, 0x7B, 0xE6, 0xBB, 0x97, 0x18, 0x6A, 0x6E, 0x00, 0x1B, 0xEF, 0xCF, 0x13, 0x18, 0xB8, 0x8D, 0x18, 0x6F, 0x5D, 0x84, 0xD6, 0x7C, 0xE2, 0x61, 0xD9, 0x6E, 0xD7, 0xAD, 0xD7, 0x13, 0x93, 0xD0, 0x3F, 0xCB, 0x25, 0xBE, 0x7F, 0xDD, 0x76, 0x39, 0xC0, 0x02, 0x06, 0x47, 0x73, 0x30, 0xCF, 0x6B, 0x68, 0xF0, 0x72, 0x1B, 0x04, 0xEE, 0x7A, 0xCD, 0x5E, 0xD6, 0x97, 0xFD, 0xE1, 0x74, 0x57, 0x75, 0x14, 0xF1, 0xC5, 0x32, 0x33, 0xF4, 0x44, 0xD8, 0x93, 0xFE, 0x48, 0x36, 0x39, 0xAA, 0x78, 0x26, 0xAE, 0xF1, 0x46, 0x6D, 0xA8, 0x7F, 0x39, 0x26, 0x10, 0x24, 0xD7, 0x2D, 0xCB, 0xA9, 0x86, 0x19, 0xDE, 0x1C, 0x11, 0xF3, 0xDA, 0x17, 0x29, 0xEE, 0xA5, 0xED, 0x92, 0x47, 0xE5, 0x8E, 0x5E, 0x64, 0x71, 0x77, 0xEA, 0xDE, 0xE2, 0xB9, 0x19, 0xD7, 0xAB, 0xA6, 0xD2, 0xE6, 0x1F, 0xEA, 0x68, 0x53, 0x74, 0x14, 0xA6, 0x46, 0xD6, 0x12, 0x73, 0x34, 0xCE, 0xF1, 0x15, 0x9B, 0x1B, 0xD7, 0xF0, 0x31, 0xBD, 0x85, 0x55, 0x30, 0x9A, 0xE4, 0x31, 0x31, 0x53, 0xDA, 0xE9, 0xD5, 0x29, 0x6E, 0x4B, 0x5A, 0xD8, 0x32, 0x64, 0x1D, 0x63, 0x3D, 0xA8, 0xD9, 0x05, 0xCE, 0xCF, 0x19, 0x7D, 0x76, 0xC1, 0xFC, 0x02, 0xC1, 0x23, 0x11, 0xE4, 0x7F, 0x95, 0x9F, 0x8F, 0xD9, 0xD0, 0x74, 0xF4, 0xDB, 0x93, 0xAB, 0x56, 0x59, 0x79, 0xFB, 0xE8, 0x5F, 0x14, 0xD4, 0x6D, 0x36, 0x8F, 0x75, 0x6B, 0x72, 0xE4, 0xE6, 0x29, 0xE8, 0xA5, 0xA1, 0x8C, 0x64, 0xF7, 0xFF, 0x0E, 0xC4, 0x92, 0x6A, 0xD3, 0xB4, 0x9E, 0x1C, 0xFE, 0x06, 0x6F, 0x35, 0x0B, 0xE8, 0x06, 0xE4, 0xDF, 0x28, 0xDD, 0xFD, 0xA8, 0x70, 0xC9, 0xCE, 0x9B, 0xB2, 0xA8, 0xE4, 0xD3, 0x38, 0x65, 0x65, 0xC3, 0x2B, 0x43, 0x11, 0xCE, 0x7A, 0x47, 0xF8, 0xB4, 0xEF, 0x63, 0xF8, 0x6B, 0xF9, 0x79, 0x44, 0x84, 0x5F, 0x15, 0xFE, 0x43, 0xA4, 0x81, 0x0F, 0x49, 0xBD, 0x2E, 0x82, 0x41, 0x86, 0x66, 0x8E, 0xDB, 0xC0, 0x4A, 0x10, 0xB5, 0x47, 0x1F, 0xA1, 0xB3, 0x0A, 0xAE, 0xD6, 0x47, 0xCD, 0x3B, 0xD2, 0xFC, 0x6B, 0x59, 0x39, 0xF1, 0x4F, 0x0D, 0x26, 0x29, 0xF4, 0x52, 0x97, 0x03, 0xF8, 0xB1, 0xBB, 0xA4, 0x39, 0xFA, 0x68, 0xCD, 0x6C, 0xFC, 0xAF, 0x21, 0xC1, 0x92, 0xE1, 0xD5, 0xEF, 0xA1, 0xD2, 0x01, 0x2E, 0xBF, 0x1A, 0x10, 0x83, 0x37, 0x6A, 0x5A, 0x60, 0x0C, 0x65, 0x85, 0x2D, 0x44, 0x11, 0x1B, 0xD5, 0xCA, 0x50, 0xDD, 0xE1, 0xFB, 0x53, 0xF0, 0x68, 0x57, 0x70, 0x2B, 0x88, 0xE0, 0x9C, 0x2F, 0xD2, 0xB4, 0x0A, 0x91, 0x9D, 0x0E, 0x1D, 0xEB, 0x79, 0x05, 0x32, 0x70, 0x5F, 0xB8, 0xFC, 0x18, 0x36, 0xA2, 0xCB, 0x73, 0x40, 0xDF, 0x42, 0x86, 0x25, 0xD9, 0x05, 0x65, 0x61, 0x8B, 0xDD, 0x90, 0x8E, 0x3B, 0x84, 0xB5, 0x9F, 0xA7, 0x3A, 0xF1, 0x36, 0xA6, 0xE4, 0xBE, 0xB7, 0xA3, 0x26, 0x45, 0x71, 0x49, 0xFF, 0x50, 0x24, 0xE4, 0x3C, 0xD6, 0x0D, 0xD3, 0x18, 0x89, 0xEB, 0xD3, 0x75, 0x7C, 0x18, 0xD2, 0xB6, 0x37, 0x8A, 0x0A, 0x0F, 0x1E, 0x5E, 0x13, 0xDF, 0x1C, 0xF5, 0xF1, 0x12, 0x29, 0xBD, 0x6B, 0xA8, 0x1B, 0xEE, 0x01, 0xD4, 0x84, 0xF7, 0x9F, 0x36, 0xA2, 0x7F, 0x11, 0x42, 0xA1, 0xC5, 0x1F, 0xB0, 0x20, 0x6B, 0xFF, 0x56, 0x48, 0xCE, 0x51, 0xC6, 0x86, 0x56, 0x34, 0x55, 0x7D, 0xAA, 0x28, 0x30, 0x3D, 0x1C, 0x9A, 0xCB, 0x2B, 0xBD, 0x8E, 0x05, 0x3A, 0x94, 0xDD, 0x38, 0x0B, 0x00, 0xAB, 0x8F, 0xAE, 0x99, 0x73, 0xB7, 0xFF, 0x42, 0x75, 0x87, 0xFC, 0x08, 0x81, 0x2D, 0x69, 0x94, 0x27, 0xBE, 0x82, 0xB5, 0x98, 0xAE, 0x28, 0xA6, 0x0A, 0x5D, 0x5F, 0xA1, 0xB8, 0x7E, 0x9C, 0x34, 0x4C, 0x3E, 0x14, 0xEC, 0xAF, 0xCB, 0x38, 0x4F, 0x31, 0x9B, 0x8E, 0x14, 0xC5, 0x98, 0x49, 0xD9, 0x1A, 0xAE, 0x37, 0x24, 0x8A, 0x47, 0x8B, 0xB4, 0x8E, 0x7F, 0xDA, 0xB9, 0x42, 0xE5, 0xFF, 0xFF, 0x00, 0x00, 0x00, 0x09, 0x10, 0x00, 0x00, 0x00, 0x13, 0x00, 0x00, 0x00, 0x1C, 0x00, 0x00, 0x00, 0x8C, 0x00, 0x00, 0x00, 0x04, 0x00, 0x00, 0x00, 0x10, 0x00, 0x00, 0x00, 0x03, 0x00, 0x00, 0x00, 0x03, 0x00, 0x00, 0x00, 0x10, 0x00, 0x00, 0x00, 0x6F, 0x00, 0x00, 0x00, 0x73, 0x65, 0x71, 0x75, 0x65, 0x6E, 0x74, 0x69, 0x61, 0x6C, 0x5F, 0x31, 0x2F, 0x71, 0x75, 0x61, 0x6E, 0x74, 0x5F, 0x63, 0x6F, 0x6E, 0x76, 0x32, 0x64, 0x5F, 0x37, 0x2F, 0x43, 0x6F, 0x6E, 0x76, 0x32, 0x44, 0x3B, 0x73, 0x65, 0x71, 0x75, 0x65, 0x6E, 0x74, 0x69, 0x61, 0x6C, 0x5F, 0x31, 0x2F, 0x71, 0x75, 0x61, 0x6E, 0x74, 0x5F, 0x63, 0x6F, 0x6E, 0x76, 0x32, 0x64, 0x5F, 0x37, 0x2F, 0x4C, 0x61, 0x73, 0x74, 0x56, 0x61, 0x6C, 0x75, 0x65, 0x51, 0x75, 0x61, 0x6E, 0x74, 0x2F, 0x46, 0x61, 0x6B, 0x65, 0x51, 0x75, 0x61, 0x6E, 0x74, 0x57, 0x69, 0x74, 0x68, 0x4D, 0x69, 0x6E, 0x4D, 0x61, 0x78, 0x56, 0x61, 0x72, 0x73, 0x50, 0x65, 0x72, 0x43, 0x68, 0x61, 0x6E, 0x6E, 0x65, 0x6C, 0x00, 0xE4, 0xE6, 0xFF, 0xFF, 0x08, 0x00, 0x00, 0x00, 0x48, 0x00, 0x00, 0x00, 0x10, 0x00, 0x00, 0x00, 0x71, 0x48, 0x94, 0x3A, 0x0A, 0x70, 0x93, 0x3A, 0xD2, 0x75, 0x96, 0x3A, 0xA4, 0x41, 0x96, 0x3A, 0x02, 0x67, 0x94, 0x3A, 0xCC, 0xF6, 0x94, 0x3A, 0xE9, 0x33, 0x97, 0x3A, 0x69, 0x34, 0x99, 0x3A, 0xE9, 0xC5, 0x92, 0x3A, 0xBC, 0x80, 0x94, 0x3A, 0x13, 0xEF, 0x94, 0x3A, 0x0F, 0x72, 0x97, 0x3A, 0xE1, 0xFB, 0x94, 0x3A, 0x71, 0x07, 0x9A, 0x3A, 0xCF, 0xB8, 0x92, 0x3A, 0x77, 0xEB, 0x94, 0x3A, 0x10, 0x00, 0x00, 0x00, 0x00, 0x00, 0x00, 0x00, 0x00, 0x00, 0x00, 0x00, 0x00, 0x00, 0x00, 0x00, 0x00, 0x00, 0x00, 0x00, 0x00, 0x00, 0x00, 0x00, 0x00, 0x00, 0x00, 0x00, 0x00, 0x00, 0x00, 0x00, 0x00, 0x00, 0x00, 0x00, 0x00, 0x00, 0x00, 0x00, 0x00, 0x00, 0x00, 0x00, 0x00, 0x00, 0x00, 0x00, 0x00, 0x00, 0x00, 0x00, 0x00, 0x00, 0x00, 0x00, 0x00, 0x00, 0x00, 0x00, 0x00, 0x00, 0x00, 0x00, 0x00, 0x00, 0x00, 0x00, 0x00, 0x00, 0x00, 0x00, 0x00, 0x00, 0x00, 0x00, 0x00, 0x00, 0x00, 0x00, 0x00, 0x00, 0x00, 0x00, 0x00, 0x00, 0x00, 0x00, 0x00, 0x00, 0x00, 0x00, 0x00, 0x00, 0x00, 0x00, 0x00, 0x00, 0x00, 0x00, 0x00, 0x00, 0x00, 0x00, 0x00, 0x00, 0x00, 0x00, 0x00, 0x00, 0x00, 0x00, 0x00, 0x00, 0x00, 0x00, 0x00, 0x00, 0x00, 0x00, 0x00, 0x00, 0x00, 0x00, 0x00, 0x00, 0x00, 0x00, 0x00, 0x00, 0x00, 0x00, 0x7E, 0xF2, 0xFF, 0xFF, 0x00, 0x00, 0x00, 0x05, 0x02, 0x00, 0x00, 0x00, 0x28, 0x00, 0x00, 0x00, 0x1C, 0x00, 0x00, 0x00, 0x04, 0x00, 0x00, 0x00, 0x6E, 0xF3, 0xFF, 0xFF, 0x02, 0x00, 0x00, 0x00, 0x02, 0x00, 0x00, 0x00, 0x02, 0x00, 0x00, 0x00, 0x02, 0x00, 0x00, 0x00, 0x01, 0x00, 0x00, 0x00, 0x11, 0x00, 0x00, 0x00, 0x01, 0x00, 0x00, 0x00, 0x10, 0x00, 0x00, 0x00, 0xE4, 0xEF, 0xFF, 0xFF, 0x00, 0x00, 0x00, 0x09, 0x14, 0x00, 0x00, 0x00, 0x12, 0x00, 0x00, 0x00, 0x34, 0x00, 0x00, 0x00, 0x60, 0x00, 0x00, 0x00, 0x18, 0x00, 0x00, 0x00, 0x04, 0x00, 0x00, 0x00, 0x01, 0x00, 0x00, 0x00, 0x01, 0x00, 0x00, 0x00, 0x3F, 0x00, 0x00, 0x00, 0x10, 0x00, 0x00, 0x00, 0x04, 0x00, 0x00, 0x00, 0xFF, 0xFF, 0xFF, 0xFF, 0x01, 0x00, 0x00, 0x00, 0x3F, 0x00, 0x00, 0x00, 0x10, 0x00, 0x00, 0x00, 0x2A, 0x00, 0x00, 0x00, 0x73, 0x65, 0x71, 0x75, 0x65, 0x6E, 0x74, 0x69, 0x61, 0x6C, 0x5F, 0x31, 0x2F, 0x71, 0x75, 0x61, 0x6E, 0x74, 0x5F, 0x6D, 0x61, 0x78, 0x5F, 0x70, 0x6F, 0x6F, 0x6C, 0x69, 0x6E, 0x67, 0x32, 0x64, 0x5F, 0x36, 0x2F, 0x4D, 0x61, 0x78, 0x50, 0x6F, 0x6F, 0x6C, 0x00, 0x00, 0x68, 0xE8, 0xFF, 0xFF, 0x08, 0x00, 0x00, 0x00, 0x0C, 0x00, 0x00, 0x00, 0x01, 0x00, 0x00, 0x00, 0x60, 0x07, 0x40, 0x3D, 0x01, 0x00, 0x00, 0x00, 0xFF, 0xFF, 0xFF, 0xFF, 0xFF, 0xFF, 0xFF, 0xFF, 0x00, 0x00, 0x00, 0x00, 0x52, 0xF3, 0xFF, 0xFF, 0x00, 0x00, 0x00, 0x01, 0x01, 0x00, 0x00, 0x00, 0x24, 0x00, 0x00, 0x00, 0x18, 0x00, 0x00, 0x00, 0x04, 0x00, 0x00, 0x00, 0x44, 0xF3, 0xFF, 0xFF, 0x01, 0x00, 0x00, 0x00, 0x01, 0x00, 0x00, 0x00, 0x00, 0x00, 0x00, 0x01, 0x01, 0x00, 0x00, 0x00, 0x10, 0x00, 0x00, 0x00, 0x03, 0x00, 0x00, 0x00, 0x0E, 0x00, 0x00, 0x00, 0x0F, 0x00, 0x00, 0x00, 0x03, 0x00, 0x00, 0x00, 0xBC, 0xF0, 0xFF, 0xFF, 0x00, 0x00, 0x00, 0x09, 0x14, 0x00, 0x00, 0x00, 0x11, 0x00, 0x00, 0x00, 0x34, 0x00, 0x00, 0x00, 0xD8, 0x00, 0x00, 0x00, 0x18, 0x00, 0x00, 0x00, 0x04, 0x00, 0x00, 0x00, 0x01, 0x00, 0x00, 0x00, 0x01, 0x00, 0x00, 0x00, 0x7D, 0x00, 0x00, 0x00, 0x10, 0x00, 0x00, 0x00, 0x04, 0x00, 0x00, 0x00, 0xFF, 0xFF, 0xFF, 0xFF, 0x01, 0x00, 0x00, 0x00, 0x7D, 0x00, 0x00, 0x00, 0x10, 0x00, 0x00, 0x00, 0xA3, 0x00, 0x00, 0x00, 0x73, 0x65, 0x71, 0x75, 0x65, 0x6E, 0x74, 0x69, 0x61, 0x6C, 0x5F, 0x31, 0x2F, 0x71, 0x75, 0x61, 0x6E, 0x74, 0x5F, 0x63, 0x6F, 0x6E, 0x76, 0x32, 0x64, 0x5F, 0x36, 0x2F, 0x52, 0x65, 0x6C, 0x75, 0x3B, 0x73, 0x65, 0x71, 0x75, 0x65, 0x6E, 0x74, 0x69, 0x61, 0x6C, 0x5F, 0x31, 0x2F, 0x71, 0x75, 0x61, 0x6E, 0x74, 0x5F, 0x63, 0x6F, 0x6E, 0x76, 0x32, 0x64, 0x5F, 0x36, 0x2F, 0x42, 0x69, 0x61, 0x73, 0x41, 0x64, 0x64, 0x3B, 0x73, 0x65, 0x71, 0x75, 0x65, 0x6E, 0x74, 0x69, 0x61, 0x6C, 0x5F, 0x31, 0x2F, 0x71, 0x75, 0x61, 0x6E, 0x74, 0x5F, 0x63, 0x6F, 0x6E, 0x76, 0x32, 0x64, 0x5F, 0x36, 0x2F, 0x43, 0x6F, 0x6E, 0x76, 0x32, 0x44, 0x3B, 0x73, 0x65, 0x71, 0x75, 0x65, 0x6E, 0x74, 0x69, 0x61, 0x6C, 0x5F, 0x31, 0x2F, 0x71, 0x75, 0x61, 0x6E, 0x74, 0x5F, 0x63, 0x6F, 0x6E, 0x76, 0x32, 0x64, 0x5F, 0x36, 0x2F, 0x42, 0x69, 0x61, 0x73, 0x41, 0x64, 0x64, 0x2F, 0x52, 0x65, 0x61, 0x64, 0x56, 0x61, 0x72, 0x69, 0x61, 0x62, 0x6C, 0x65, 0x4F, 0x70, 0x2F, 0x72, 0x65, 0x73, 0x6F, 0x75, 0x72, 0x63, 0x65, 0x00, 0xB8, 0xE9, 0xFF, 0xFF, 0x08, 0x00, 0x00, 0x00, 0x0C, 0x00, 0x00, 0x00, 0x01, 0x00, 0x00, 0x00, 0x60, 0x07, 0x40, 0x3D, 0x01, 0x00, 0x00, 0x00, 0xFF, 0xFF, 0xFF, 0xFF, 0xFF, 0xFF, 0xFF, 0xFF, 0xF2, 0xE8, 0xFF, 0xFF, 0x04, 0x00, 0x00, 0x00, 0x80, 0x04, 0x00, 0x00, 0xD2, 0x7B, 0x12, 0x98, 0x47, 0xB6, 0x45, 0x52, 0x39, 0xAF, 0x1E, 0x8C, 0x1C, 0x31, 0xB4, 0x0B, 0x97, 0xA0, 0x81, 0x53, 0x45, 0x68, 0x8E, 0x06, 0xF9, 0xCB, 0x34, 0x57, 0x28, 0x6E, 0x14, 0x78, 0xE8, 0xAE, 0x10, 0x67, 0xA4, 0xDE, 0x0D, 0xEA, 0xFB, 0x6D, 0x96, 0x0D, 0xB8, 0x1D, 0x05, 0xDE, 0x4F, 0x0D, 0x31, 0x5E, 0x59, 0x43, 0x71, 0x57, 0x6F, 0x03, 0x17, 0xF7, 0xCA, 0x4E, 0x52, 0x82, 0xB5, 0x23, 0x67, 0x41, 0x95, 0xB2, 0xAC, 0xB0, 0xD3, 0x0F, 0xBC, 0xE9, 0xA5, 0x6A, 0x52, 0x8C, 0xA4, 0x21, 0x21, 0x89, 0xE9, 0xE5, 0xE7, 0xF7, 0x1F, 0x01, 0x7F, 0xC2, 0xCB, 0x3E, 0xB3, 0x48, 0x87, 0x36, 0xA5, 0xAA, 0xC6, 0x8C, 0xCF, 0x47, 0x08, 0x10, 0x0C, 0xC6, 0xA9, 0x1E, 0x1B, 0x61, 0x4A, 0xC6, 0x9A, 0x17, 0x75, 0x1F, 0x72, 0x63, 0x9B, 0xE3, 0xAA, 0xA1, 0xEA, 0xB1, 0x1B, 0x6B, 0xA7, 0xF6, 0x91, 0x03, 0xF1, 0x45, 0x4F, 0x2F, 0x6B, 0xAD, 0x39, 0xD0, 0xA1, 0xFC, 0x27, 0x0D, 0x96, 0xD6, 0x42, 0x6D, 0xA6, 0xA3, 0x75, 0x39, 0x7B, 0xE2, 0x13, 0x88, 0xEE, 0x57, 0xFE, 0xE6, 0x6F, 0xE1, 0x91, 0xE0, 0x8F, 0xBE, 0xC5, 0xB9, 0xFF, 0x04, 0x2F, 0xA7, 0x58, 0x2A, 0xAE, 0x94, 0xF9, 0x7F, 0xF0, 0x36, 0x14, 0x3A, 0xE7, 0x9B, 0xF6, 0x0C, 0xF9, 0xEB, 0x1B, 0xDC, 0x82, 0xD7, 0xCC, 0x93, 0x4D, 0x4F, 0x29, 0xD6, 0x9F, 0xCE, 0x96, 0x03, 0x76, 0x31, 0x54, 0xD8, 0xEE, 0x78, 0x14, 0x3E, 0xC3, 0xE4, 0xE5, 0xD1, 0x97, 0x79, 0xC0, 0xD1, 0x45, 0xA1, 0x7D, 0xD3, 0x55, 0x60, 0xD8, 0x8D, 0x9E, 0x07, 0x93, 0xF9, 0x45, 0x22, 0x5C, 0x13, 0xAA, 0x97, 0x2B, 0xF5, 0xDC, 0x4A, 0x05, 0x62, 0x15, 0x47, 0xF5, 0x97, 0x55, 0x24, 0x4E, 0x97, 0x49, 0x08, 0x13, 0x21, 0xF0, 0x16, 0xA1, 0x5B, 0xA1, 0xC4, 0x24, 0xFD, 0xA3, 0x8C, 0x73, 0x1B, 0x94, 0x5E, 0xD7, 0x03, 0x1E, 0x81, 0xCE, 0xDC, 0x59, 0xA2, 0xEF, 0x6A, 0x1F, 0xA9, 0x50, 0x91, 0xBC, 0xA6, 0x30, 0x5F, 0x20, 0x2A, 0xCC, 0xFD, 0x9C, 0x75, 0x8A, 0x07, 0x84, 0xDF, 0xE2, 0x81, 0xCA, 0xBC, 0x04, 0x47, 0x4E, 0x3B, 0x27, 0xB5, 0x75, 0xED, 0x0A, 0x73, 0x5B, 0xCE, 0xEB, 0x20, 0xF3, 0xB0, 0x0C, 0x4C, 0x8E, 0x3E, 0x0B, 0xFA, 0xDF, 0x42, 0xAD, 0x36, 0x3F, 0xE9, 0x52, 0xAC, 0xE7, 0x55, 0x11, 0xC3, 0xEC, 0xFA, 0xCB, 0x94, 0x42, 0xE0, 0x87, 0x9E, 0xD1, 0x65, 0x0A, 0xFD, 0xFF, 0x90, 0xFA, 0x71, 0x1C, 0x33, 0x68, 0x01, 0x49, 0x9B, 0x62, 0x4C, 0x94, 0xBD, 0xFF, 0x3C, 0x7C, 0xA7, 0x5E, 0xEF, 0x95, 0x5A, 0x1F, 0x9F, 0xA0, 0x13, 0xE3, 0x8D, 0x7D, 0x92, 0xDC, 0xBF, 0xE5, 0xAD, 0x8D, 0xE8, 0x6C, 0x8B, 0x88, 0x4D, 0xF6, 0x5F, 0xEB, 0x92, 0xF0, 0xE1, 0x97, 0x14, 0x78, 0xC7, 0xBB, 0x7D, 0x07, 0x45, 0xF0, 0x0A, 0x30, 0x8C, 0x38, 0xCE, 0x16, 0xE8, 0x81, 0x82, 0xAB, 0x1E, 0x87, 0xE4, 0x64, 0xED, 0xED, 0x70, 0x25, 0xE2, 0xD5, 0xDE, 0xB4, 0xEB, 0x2A, 0x6E, 0xBB, 0x4F, 0xC0, 0x33, 0x8E, 0x09, 0xD2, 0x21, 0xF8, 0x8F, 0x0E, 0xE8, 0xAD, 0x20, 0xFE, 0x51, 0x3D, 0xE1, 0xEE, 0xE9, 0x97, 0xB4, 0x26, 0xBA, 0x4A, 0x42, 0x64, 0x43, 0xEC, 0xD3, 0xD8, 0x21, 0x6B, 0xB8, 0xF6, 0x3A, 0x57, 0x72, 0x54, 0x25, 0xF6, 0x51, 0x99, 0x3C, 0x9B, 0x17, 0x00, 0xA2, 0xFB, 0xEB, 0x44, 0x2A, 0x93, 0xDE, 0xDF, 0xA9, 0x47, 0x85, 0x72, 0x73, 0xB3, 0xE1, 0xA9, 0x81, 0xF2, 0x08, 0xF7, 0x12, 0x8C, 0xAC, 0x95, 0x61, 0x8A, 0x82, 0xF3, 0xCD, 0xE0, 0x8D, 0xA3, 0xEF, 0x9A, 0x41, 0xDC, 0x26, 0x84, 0x57, 0x24, 0x62, 0x3E, 0xE0, 0xCB, 0x11, 0xDE, 0x22, 0x84, 0xF5, 0x18, 0xF6, 0x0F, 0xBC, 0xF7, 0xBE, 0xD4, 0x9E, 0x1B, 0xA1, 0x8E, 0x31, 0x40, 0xE3, 0xF2, 0x07, 0x11, 0xE8, 0x2E, 0xE7, 0xA8, 0x8A, 0xFB, 0x2B, 0x68, 0x68, 0x35, 0xD2, 0x53, 0x6A, 0x3F, 0xB6, 0x40, 0xFA, 0x9C, 0x9D, 0x09, 0xED, 0x79, 0x9D, 0x81, 0x13, 0x79, 0xE9, 0x86, 0x33, 0x2A, 0x60, 0x5A, 0x7E, 0x58, 0xC6, 0xFE, 0x5B, 0x0B, 0x8E, 0x14, 0x55, 0x2A, 0xA9, 0x53, 0xA0, 0x6C, 0x40, 0xDD, 0x77, 0x51, 0x10, 0xA2, 0x32, 0xEA, 0x01, 0x0D, 0x4D, 0xE1, 0x26, 0xAB, 0xF7, 0xC1, 0x0B, 0xDE, 0xAC, 0xC7, 0x65, 0xDD, 0x66, 0x1B, 0x5C, 0x17, 0x47, 0xA0, 0xFF, 0x8C, 0x15, 0xEC, 0xB0, 0x1E, 0xDB, 0x3F, 0xE9, 0x83, 0x88, 0xE1, 0x8E, 0xA8, 0x3A, 0xEB, 0x58, 0xAF, 0x7F, 0x42, 0x8A, 0x00, 0x78, 0x44, 0x5B, 0x5F, 0x6F, 0xC3, 0x65, 0x1D, 0x74, 0x5E, 0x18, 0x2D, 0x1A, 0x8F, 0x9D, 0x36, 0x0B, 0x35, 0x0E, 0x86, 0xC0, 0x89, 0x16, 0xF0, 0x8A, 0xBA, 0x99, 0xDE, 0x91, 0xAD, 0x64, 0xCC, 0xB7, 0xED, 0x4C, 0xC0, 0x9E, 0xEA, 0xDD, 0x1C, 0x9E, 0x09, 0x74, 0x7F, 0x06, 0xEB, 0xCF, 0x4C, 0x41, 0x97, 0x1A, 0x3F, 0xF4, 0xDD, 0x77, 0x48, 0x29, 0x86, 0x87, 0x5D, 0x21, 0x23, 0x37, 0x37, 0x21, 0xA1, 0x42, 0xB4, 0xE2, 0x1C, 0x4D, 0x47, 0x1B, 0x12, 0xD5, 0xDA, 0xA2, 0xD7, 0x27, 0x72, 0x17, 0x6B, 0x38, 0xA1, 0xCF, 0x9D, 0xD0, 0x07, 0x37, 0xA8, 0xB0, 0x84, 0x62, 0x62, 0xDD, 0xD3, 0x66, 0x9F, 0xC9, 0xDD, 0x5F, 0xA5, 0xD9, 0xD2, 0x09, 0xF1, 0x49, 0x83, 0xCB, 0xA8, 0x64, 0x7F, 0xD9, 0xAC, 0x88, 0x15, 0x58, 0xC7, 0x6F, 0xCB, 0x35, 0x82, 0xA7, 0xFB, 0x7A, 0x4B, 0xDB, 0xA2, 0xD8, 0x53, 0x99, 0x3F, 0x86, 0xE7, 0xA7, 0xB5, 0x07, 0x58, 0xDB, 0x44, 0x43, 0x95, 0xDC, 0x79, 0x90, 0x48, 0x56, 0x7B, 0x3C, 0x9F, 0x86, 0xB8, 0xD4, 0x64, 0xB4, 0x96, 0x42, 0x3E, 0x23, 0x17, 0x8D, 0x60, 0x05, 0xE9, 0xBF, 0x98, 0x82, 0x04, 0x39, 0x0C, 0x5D, 0x16, 0x78, 0x62, 0x5A, 0x0D, 0x5C, 0x3F, 0x98, 0x4B, 0x74, 0x7E, 0x02, 0x5D, 0xEB, 0xCA, 0xE9, 0x55, 0xB0, 0x06, 0xC9, 0x53, 0x23, 0xAC, 0xA0, 0x1A, 0xD8, 0x39, 0xDD, 0xAA, 0x5F, 0x56, 0x96, 0xF2, 0x49, 0x07, 0x6A, 0x14, 0x56, 0xA2, 0xE3, 0xF7, 0x5D, 0x48, 0xB0, 0x18, 0xB4, 0x2C, 0xD6, 0xF4, 0x68, 0x69, 0x61, 0x81, 0xB0, 0x97, 0x48, 0x97, 0x39, 0x7F, 0xC7, 0x77, 0xD4, 0x2A, 0x75, 0x01, 0x60, 0x14, 0x48, 0x82, 0x6B, 0x61, 0x8C, 0xBB, 0xA4, 0xDF, 0x21, 0x79, 0xE2, 0x05, 0xF7, 0x18, 0x2C, 0x0B, 0xAC, 0x90, 0x16, 0x73, 0x47, 0x66, 0x2B, 0x9A, 0xE5, 0x88, 0x35, 0xB7, 0x04, 0x78, 0xEC, 0x15, 0x82, 0xF2, 0xDA, 0x73, 0xDF, 0x3E, 0x58, 0x09, 0xE0, 0xE7, 0x8F, 0x5B, 0x50, 0x5B, 0x31, 0xB5, 0x3D, 0xBF, 0x57, 0x7F, 0x2C, 0x1E, 0x7F, 0x5C, 0xE2, 0x52, 0xCF, 0xD0, 0x5F, 0x45, 0xD4, 0xF1, 0x1C, 0x8B, 0x3D, 0xBA, 0xAF, 0x5C, 0xB5, 0x2B, 0x5D, 0xE5, 0xD4, 0x1A, 0x76, 0xD6, 0xBD, 0xE9, 0xE6, 0x18, 0x61, 0xB6, 0x81, 0x88, 0xA5, 0x01, 0xC9, 0x9C, 0xB0, 0x78, 0x35, 0x6A, 0xAF, 0xEC, 0x1B, 0x23, 0xF8, 0x8D, 0x48, 0x19, 0xD3, 0x5D, 0xB5, 0x1D, 0x46, 0xD5, 0x6F, 0x82, 0x4C, 0xF7, 0xB1, 0xC7, 0xDB, 0xB7, 0x74, 0xDD, 0x0B, 0x07, 0xEB, 0xB7, 0x47, 0x99, 0x99, 0x2B, 0x3C, 0x68, 0xF3, 0x65, 0xA9, 0x28, 0xE6, 0xE7, 0xAA, 0x52, 0x2B, 0xF1, 0x02, 0x67, 0x2C, 0xB2, 0xEB, 0xFE, 0xEC, 0x7E, 0xD8, 0x56, 0x50, 0xAB, 0xDB, 0xCD, 0x89, 0xC2, 0xD8, 0x84, 0x20, 0xDD, 0xF6, 0x44, 0xB3, 0x0B, 0x26, 0x70, 0x46, 0x84, 0x6E, 0x32, 0xE4, 0x14, 0x62, 0x83, 0x07, 0x72, 0xDB, 0x30, 0x77, 0x67, 0x81, 0x76, 0x6B, 0x4D, 0x33, 0xE9, 0xD8, 0x70, 0xB0, 0xCB, 0xA0, 0x2C, 0xA6, 0xA9, 0x5C, 0xC3, 0x5A, 0x41, 0x0E, 0x21, 0xF3, 0xE8, 0xA9, 0xC2, 0xB8, 0xBA, 0xF5, 0xF2, 0x65, 0x03, 0x57, 0x83, 0x93, 0x50, 0x4D, 0xFF, 0x6F, 0xEE, 0x69, 0xEB, 0x35, 0x32, 0x0E, 0xE0, 0xB5, 0xDF, 0xBE, 0x4D, 0xAD, 0xF3, 0x21, 0x41, 0xBB, 0x95, 0x2D, 0x5B, 0xBE, 0xE6, 0xB7, 0x36, 0xB1, 0x43, 0xBE, 0x24, 0x6E, 0xA0, 0x76, 0x5B, 0xA8, 0xF2, 0xD4, 0xDC, 0x31, 0x28, 0xC7, 0x2D, 0x44, 0xC0, 0xE2, 0x79, 0x51, 0x6A, 0xD2, 0x5B, 0x3D, 0xE5, 0x59, 0x7B, 0xD2, 0x69, 0xF8, 0x7F, 0xEB, 0xCA, 0x4E, 0x9C, 0xFA, 0x77, 0x48, 0x4E, 0xF6, 0x62, 0xED, 0xFF, 0xFF, 0x00, 0x00, 0x00, 0x09, 0x10, 0x00, 0x00, 0x00, 0x10, 0x00, 0x00, 0x00, 0x1C, 0x00, 0x00, 0x00, 0x8C, 0x00, 0x00, 0x00, 0x04, 0x00, 0x00, 0x00, 0x10, 0x00, 0x00, 0x00, 0x03, 0x00, 0x00, 0x00, 0x03, 0x00, 0x00, 0x00, 0x08, 0x00, 0x00, 0x00, 0x6F, 0x00, 0x00, 0x00, 0x73, 0x65, 0x71, 0x75, 0x65, 0x6E, 0x74, 0x69, 0x61, 0x6C, 0x5F, 0x31, 0x2F, 0x71, 0x75, 0x61, 0x6E, 0x74, 0x5F, 0x63, 0x6F, 0x6E, 0x76, 0x32, 0x64, 0x5F, 0x36, 0x2F, 0x43, 0x6F, 0x6E, 0x76, 0x32, 0x44, 0x3B, 0x73, 0x65, 0x71, 0x75, 0x65, 0x6E, 0x74, 0x69, 0x61, 0x6C, 0x5F, 0x31, 0x2F, 0x71, 0x75, 0x61, 0x6E, 0x74, 0x5F, 0x63, 0x6F, 0x6E, 0x76, 0x32, 0x64, 0x5F, 0x36, 0x2F, 0x4C, 0x61, 0x73, 0x74, 0x56, 0x61, 0x6C, 0x75, 0x65, 0x51, 0x75, 0x61, 0x6E, 0x74, 0x2F, 0x46, 0x61, 0x6B, 0x65, 0x51, 0x75, 0x61, 0x6E, 0x74, 0x57, 0x69, 0x74, 0x68, 0x4D, 0x69, 0x6E, 0x4D, 0x61, 0x78, 0x56, 0x61, 0x72, 0x73, 0x50, 0x65, 0x72, 0x43, 0x68, 0x61, 0x6E, 0x6E, 0x65, 0x6C, 0x00, 0x04, 0xEF, 0xFF, 0xFF, 0x08, 0x00, 0x00, 0x00, 0x48, 0x00, 0x00, 0x00, 0x10, 0x00, 0x00, 0x00, 0x22, 0xEE, 0xAB, 0x3A, 0x1D, 0x1E, 0xAB, 0x3A, 0x38, 0x3E, 0xA8, 0x3A, 0xB1, 0x84, 0xA3, 0x3A, 0xA5, 0x1E, 0xA7, 0x3A, 0x6D, 0x03, 0xAA, 0x3A, 0xE7, 0x71, 0xAB, 0x3A, 0xAC, 0xC0, 0xA8, 0x3A, 0xDD, 0xF5, 0xAA, 0x3A, 0xA6, 0x2F, 0xAF, 0x3A, 0x70, 0x74, 0xAD, 0x3A, 0x7A, 0x67, 0xA8, 0x3A, 0xBE, 0xD0, 0xAB, 0x3A, 0x47, 0xD8, 0xA7, 0x3A, 0x90, 0xB3, 0xA9, 0x3A, 0x13, 0x5C, 0xA7, 0x3A, 0x10, 0x00, 0x00, 0x00, 0x00, 0x00, 0x00, 0x00, 0x00, 0x00, 0x00, 0x00, 0x00, 0x00, 0x00, 0x00, 0x00, 0x00, 0x00, 0x00, 0x00, 0x00, 0x00, 0x00, 0x00, 0x00, 0x00, 0x00, 0x00, 0x00, 0x00, 0x00, 0x00, 0x00, 0x00, 0x00, 0x00, 0x00, 0x00, 0x00, 0x00, 0x00, 0x00, 0x00, 0x00, 0x00, 0x00, 0x00, 0x00, 0x00, 0x00, 0x00, 0x00, 0x00, 0x00, 0x00, 0x00, 0x00, 0x00, 0x00, 0x00, 0x00, 0x00, 0x00, 0x00, 0x00, 0x00, 0x00, 0x00, 0x00, 0x00, 0x00, 0x00, 0x00, 0x00, 0x00, 0x00, 0x00, 0x00, 0x00, 0x00, 0x00, 0x00, 0x00, 0x00, 0x00, 0x00, 0x00, 0x00, 0x00, 0x00, 0x00, 0x00, 0x00, 0x00, 0x00, 0x00, 0x00, 0x00, 0x00, 0x00, 0x00, 0x00, 0x00, 0x00, 0x00, 0x00, 0x00, 0x00, 0x00, 0x00, 0x00, 0x00, 0x00, 0x00, 0x00, 0x00, 0x00, 0x00, 0x00, 0x00, 0x00, 0x00, 0x00, 0x00, 0x00, 0x00, 0x00, 0x00, 0x00, 0x00, 0x00, 0x9E, 0xFA, 0xFF, 0xFF, 0x00, 0x00, 0x00, 0x05, 0x02, 0x00, 0x00, 0x00, 0x28, 0x00, 0x00, 0x00, 0x1C, 0x00, 0x00, 0x00, 0x04, 0x00, 0x00, 0x00, 0x8E, 0xFB, 0xFF, 0xFF, 0x02, 0x00, 0x00, 0x00, 0x02, 0x00, 0x00, 0x00, 0x02, 0x00, 0x00, 0x00, 0x02, 0x00, 0x00, 0x00, 0x01, 0x00, 0x00, 0x00, 0x0E, 0x00, 0x00, 0x00, 0x01, 0x00, 0x00, 0x00, 0x0D, 0x00, 0x00, 0x00, 0x04, 0xF8, 0xFF, 0xFF, 0x00, 0x00, 0x00, 0x09, 0x14, 0x00, 0x00, 0x00, 0x0F, 0x00, 0x00, 0x00, 0x34, 0x00, 0x00, 0x00, 0x60, 0x00, 0x00, 0x00, 0x18, 0x00, 0x00, 0x00, 0x04, 0x00, 0x00, 0x00, 0x01, 0x00, 0x00, 0x00, 0x01, 0x00, 0x00, 0x00, 0x7D, 0x00, 0x00, 0x00, 0x08, 0x00, 0x00, 0x00, 0x04, 0x00, 0x00, 0x00, 0xFF, 0xFF, 0xFF, 0xFF, 0x01, 0x00, 0x00, 0x00, 0x7D, 0x00, 0x00, 0x00, 0x08, 0x00, 0x00, 0x00, 0x2A, 0x00, 0x00, 0x00, 0x73, 0x65, 0x71, 0x75, 0x65, 0x6E, 0x74, 0x69, 0x61, 0x6C, 0x5F, 0x31, 0x2F, 0x71, 0x75, 0x61, 0x6E, 0x74, 0x5F, 0x6D, 0x61, 0x78, 0x5F, 0x70, 0x6F, 0x6F, 0x6C, 0x69, 0x6E, 0x67, 0x32, 0x64, 0x5F, 0x35, 0x2F, 0x4D, 0x61, 0x78, 0x50, 0x6F, 0x6F, 0x6C, 0x00, 0x00, 0x88, 0xF0, 0xFF, 0xFF, 0x08, 0x00, 0x00, 0x00, 0x0C, 0x00, 0x00, 0x00, 0x01, 0x00, 0x00, 0x00, 0xA0, 0x78, 0x40, 0x3D, 0x01, 0x00, 0x00, 0x00, 0xFF, 0xFF, 0xFF, 0xFF, 0xFF, 0xFF, 0xFF, 0xFF, 0x00, 0x00, 0x00, 0x00, 0x72, 0xFB, 0xFF, 0xFF, 0x00, 0x00, 0x00, 0x01, 0x01, 0x00, 0x00, 0x00, 0x24, 0x00, 0x00, 0x00, 0x18, 0x00, 0x00, 0x00, 0x04, 0x00, 0x00, 0x00, 0x64, 0xFB, 0xFF, 0xFF, 0x01, 0x00, 0x00, 0x00, 0x01, 0x00, 0x00, 0x00, 0x00, 0x00, 0x00, 0x01, 0x01, 0x00, 0x00, 0x00, 0x0D, 0x00, 0x00, 0x00, 0x03, 0x00, 0x00, 0x00, 0x0B, 0x00, 0x00, 0x00, 0x0C, 0x00, 0x00, 0x00, 0x04, 0x00, 0x00, 0x00, 0xDC, 0xF8, 0xFF, 0xFF, 0x00, 0x00, 0x00, 0x09, 0x14, 0x00, 0x00, 0x00, 0x0E, 0x00, 0x00, 0x00, 0x34, 0x00, 0x00, 0x00, 0xD8, 0x00, 0x00, 0x00, 0x18, 0x00, 0x00, 0x00, 0x04, 0x00, 0x00, 0x00, 0x01, 0x00, 0x00, 0x00, 0x01, 0x00, 0x00, 0x00, 0xFA, 0x00, 0x00, 0x00, 0x08, 0x00, 0x00, 0x00, 0x04, 0x00, 0x00, 0x00, 0xFF, 0xFF, 0xFF, 0xFF, 0x01, 0x00, 0x00, 0x00, 0xFA, 0x00, 0x00, 0x00, 0x08, 0x00, 0x00, 0x00, 0xA3, 0x00, 0x00, 0x00, 0x73, 0x65, 0x71, 0x75, 0x65, 0x6E, 0x74, 0x69, 0x61, 0x6C, 0x5F, 0x31, 0x2F, 0x71, 0x75, 0x61, 0x6E, 0x74, 0x5F, 0x63, 0x6F, 0x6E, 0x76, 0x32, 0x64, 0x5F, 0x35, 0x2F, 0x52, 0x65, 0x6C, 0x75, 0x3B, 0x73, 0x65, 0x71, 0x75, 0x65, 0x6E, 0x74, 0x69, 0x61, 0x6C, 0x5F, 0x31, 0x2F, 0x71, 0x75, 0x61, 0x6E, 0x74, 0x5F, 0x63, 0x6F, 0x6E, 0x76, 0x32, 0x64, 0x5F, 0x35, 0x2F, 0x42, 0x69, 0x61, 0x73, 0x41, 0x64, 0x64, 0x3B, 0x73, 0x65, 0x71, 0x75, 0x65, 0x6E, 0x74, 0x69, 0x61, 0x6C, 0x5F, 0x31, 0x2F, 0x71, 0x75, 0x61, 0x6E, 0x74, 0x5F, 0x63, 0x6F, 0x6E, 0x76, 0x32, 0x64, 0x5F, 0x35, 0x2F, 0x43, 0x6F, 0x6E, 0x76, 0x32, 0x44, 0x3B, 0x73, 0x65, 0x71, 0x75, 0x65, 0x6E, 0x74, 0x69, 0x61, 0x6C, 0x5F, 0x31, 0x2F, 0x71, 0x75, 0x61, 0x6E, 0x74, 0x5F, 0x63, 0x6F, 0x6E, 0x76, 0x32, 0x64, 0x5F, 0x35, 0x2F, 0x42, 0x69, 0x61, 0x73, 0x41, 0x64, 0x64, 0x2F, 0x52, 0x65, 0x61, 0x64, 0x56, 0x61, 0x72, 0x69, 0x61, 0x62, 0x6C, 0x65, 0x4F, 0x70, 0x2F, 0x72, 0x65, 0x73, 0x6F, 0x75, 0x72, 0x63, 0x65, 0x00, 0xD8, 0xF1, 0xFF, 0xFF, 0x08, 0x00, 0x00, 0x00, 0x0C, 0x00, 0x00, 0x00, 0x01, 0x00, 0x00, 0x00, 0xA0, 0x78, 0x40, 0x3D, 0x01, 0x00, 0x00, 0x00, 0xFF, 0xFF, 0xFF, 0xFF, 0xFF, 0xFF, 0xFF, 0xFF, 0x12, 0xF1, 0xFF, 0xFF, 0x04, 0x00, 0x00, 0x00, 0x20, 0x01, 0x00, 0x00, 0x2B, 0xEB, 0x26, 0xD3, 0x39, 0xB8, 0xF0, 0x3F, 0x81, 0x33, 0x59, 0xB8, 0xD6, 0x3F, 0x1D, 0x67, 0x90, 0x66, 0x27, 0xC9, 0xC7, 0x31, 0x37, 0x39, 0x03, 0xE2, 0xE1, 0xC7, 0xDE, 0x64, 0x64, 0xF9, 0xF4, 0xC5, 0xFF, 0x29, 0x34, 0x9A, 0xD6, 0x3F, 0xDA, 0xAA, 0x8E, 0xB5, 0xAF, 0x85, 0xB4, 0x33, 0xC8, 0x08, 0xB6, 0x5B, 0x53, 0x5F, 0x81, 0x07, 0x1A, 0x14, 0x8D, 0x52, 0x52, 0x6C, 0x38, 0x47, 0xA5, 0x00, 0xFA, 0x26, 0xC3, 0x53, 0x3E, 0x94, 0x18, 0x8A, 0xD3, 0x1D, 0x73, 0x00, 0x5C, 0xD4, 0xE0, 0x91, 0x8A, 0x3B, 0xF0, 0x0C, 0x3B, 0x87, 0x91, 0x7F, 0xFB, 0xA4, 0xBB, 0xAE, 0x82, 0x0A, 0x4C, 0xE7, 0xEF, 0xA5, 0x9C, 0x5B, 0x1E, 0x39, 0x99, 0xE2, 0x8A, 0x94, 0x46, 0x8B, 0x9D, 0x91, 0x32, 0xEE, 0x52, 0x22, 0xD3, 0x3F, 0x0C, 0xAE, 0x4F, 0x87, 0xC9, 0x0D, 0x85, 0x65, 0xED, 0x8F, 0x84, 0xD6, 0x01, 0x55, 0xF0, 0x81, 0xA0, 0x26, 0x82, 0x39, 0x03, 0x9F, 0xBA, 0x76, 0x2D, 0xE2, 0xDA, 0x52, 0x3A, 0x87, 0x67, 0x6D, 0x7F, 0x3F, 0xE4, 0xCA, 0x64, 0x73, 0xF1, 0x5E, 0x43, 0xA3, 0x6F, 0xB4, 0x51, 0xD1, 0x9D, 0xC6, 0x3C, 0xC8, 0x49, 0x6A, 0x8E, 0xD3, 0x57, 0x0B, 0x55, 0x2A, 0x30, 0x0B, 0x46, 0x51, 0x76, 0x2D, 0xFE, 0x10, 0x66, 0x92, 0x7F, 0x8C, 0x9A, 0xF8, 0x31, 0xDB, 0x8C, 0x60, 0x0B, 0x70, 0xD2, 0xE2, 0xB0, 0x79, 0xF6, 0x55, 0xF1, 0x44, 0xCF, 0xE4, 0xAA, 0x38, 0xB8, 0xD4, 0x43, 0x1F, 0x65, 0x7C, 0x69, 0xD0, 0x81, 0x09, 0x8F, 0x10, 0xB6, 0xBB, 0x88, 0x7A, 0xF1, 0x6D, 0xEE, 0x01, 0x00, 0xCF, 0x32, 0xB3, 0xC1, 0x13, 0x02, 0x42, 0x3B, 0x22, 0xC6, 0xAA, 0x14, 0xFE, 0x20, 0xDC, 0x16, 0x46, 0xF0, 0x3B, 0xF0, 0x3D, 0x4E, 0x3F, 0x83, 0xD8, 0x69, 0xE6, 0x7F, 0xA0, 0xC1, 0x4C, 0x1F, 0x71, 0x5A, 0xED, 0x10, 0xAE, 0xF6, 0x30, 0xA7, 0x17, 0x6B, 0xD9, 0x70, 0x00, 0xED, 0xFD, 0x42, 0xD4, 0xE8, 0x3A, 0x8A, 0x8D, 0x8C, 0xA3, 0xA9, 0x89, 0x2C, 0xBF, 0x22, 0xF2, 0xFF, 0xFF, 0x00, 0x00, 0x00, 0x09, 0x10, 0x00, 0x00, 0x00, 0x0D, 0x00, 0x00, 0x00, 0x1C, 0x00, 0x00, 0x00, 0x8C, 0x00, 0x00, 0x00, 0x04, 0x00, 0x00, 0x00, 0x08, 0x00, 0x00, 0x00, 0x03, 0x00, 0x00, 0x00, 0x03, 0x00, 0x00, 0x00, 0x04, 0x00, 0x00, 0x00, 0x6F, 0x00, 0x00, 0x00, 0x73, 0x65, 0x71, 0x75, 0x65, 0x6E, 0x74, 0x69, 0x61, 0x6C, 0x5F, 0x31, 0x2F, 0x71, 0x75, 0x61, 0x6E, 0x74, 0x5F, 0x63, 0x6F, 0x6E, 0x76, 0x32, 0x64, 0x5F, 0x35, 0x2F, 0x43, 0x6F, 0x6E, 0x76, 0x32, 0x44, 0x3B, 0x73, 0x65, 0x71, 0x75, 0x65, 0x6E, 0x74, 0x69, 0x61, 0x6C, 0x5F, 0x31, 0x2F, 0x71, 0x75, 0x61, 0x6E, 0x74, 0x5F, 0x63, 0x6F, 0x6E, 0x76, 0x32, 0x64, 0x5F, 0x35, 0x2F, 0x4C, 0x61, 0x73, 0x74, 0x56, 0x61, 0x6C, 0x75, 0x65, 0x51, 0x75, 0x61, 0x6E, 0x74, 0x2F, 0x46, 0x61, 0x6B, 0x65, 0x51, 0x75, 0x61, 0x6E, 0x74, 0x57, 0x69, 0x74, 0x68, 0x4D, 0x69, 0x6E, 0x4D, 0x61, 0x78, 0x56, 0x61, 0x72, 0x73, 0x50, 0x65, 0x72, 0x43, 0x68, 0x61, 0x6E, 0x6E, 0x65, 0x6C, 0x00, 0xC4, 0xF3, 0xFF, 0xFF, 0x08, 0x00, 0x00, 0x00, 0x28, 0x00, 0x00, 0x00, 0x08, 0x00, 0x00, 0x00, 0x51, 0x28, 0xEE, 0x3A, 0x9A, 0x12, 0xF7, 0x3A, 0xE4, 0x6C, 0xEF, 0x3A, 0x7A, 0x72, 0xEF, 0x3A, 0x2D, 0x4A, 0xF0, 0x3A, 0x86, 0xCC, 0xED, 0x3A, 0x5E, 0x0B, 0xE9, 0x3A, 0x2F, 0x0B, 0xEA, 0x3A, 0x08, 0x00, 0x00, 0x00, 0x00, 0x00, 0x00, 0x00, 0x00, 0x00, 0x00, 0x00, 0x00, 0x00, 0x00, 0x00, 0x00, 0x00, 0x00, 0x00, 0x00, 0x00, 0x00, 0x00, 0x00, 0x00, 0x00, 0x00, 0x00, 0x00, 0x00, 0x00, 0x00, 0x00, 0x00, 0x00, 0x00, 0x00, 0x00, 0x00, 0x00, 0x00, 0x00, 0x00, 0x00, 0x00, 0x00, 0x00, 0x00, 0x00, 0x00, 0x00, 0x00, 0x00, 0x00, 0x00, 0x00, 0x00, 0x00, 0x00, 0x00, 0x00, 0x00, 0x00, 0x00, 0x00, 0x00, 0x00, 0x00, 0x00, 0x0E, 0x00, 0x1A, 0x00, 0x08, 0x00, 0x0C, 0x00, 0x10, 0x00, 0x07, 0x00, 0x14, 0x00, 0x0E, 0x00, 0x00, 0x00, 0x00, 0x00, 0x00, 0x05, 0x02, 0x00, 0x00, 0x00, 0x38, 0x00, 0x00, 0x00, 0x2C, 0x00, 0x00, 0x00, 0x14, 0x00, 0x00, 0x00, 0x00, 0x00, 0x0E, 0x00, 0x14, 0x00, 0x00, 0x00, 0x10, 0x00, 0x0C, 0x00, 0x08, 0x00, 0x04, 0x00, 0x0E, 0x00, 0x00, 0x00, 0x02, 0x00, 0x00, 0x00, 0x02, 0x00, 0x00, 0x00, 0x02, 0x00, 0x00, 0x00, 0x02, 0x00, 0x00, 0x00, 0x01, 0x00, 0x00, 0x00, 0x0B, 0x00, 0x00, 0x00, 0x01, 0x00, 0x00, 0x00, 0x0A, 0x00, 0x00, 0x00, 0xA0, 0xFC, 0xFF, 0xFF, 0x11, 0x00, 0x00, 0x00, 0x00, 0x00, 0x00, 0x11, 0x02, 0x00, 0x00, 0x00, 0x94, 0xFC, 0xFF, 0xFF, 0x00, 0x00, 0x00, 0x09, 0x14, 0x00, 0x00, 0x00, 0x0C, 0x00, 0x00, 0x00, 0x34, 0x00, 0x00, 0x00, 0x60, 0x00, 0x00, 0x00, 0x18, 0x00, 0x00, 0x00, 0x04, 0x00, 0x00, 0x00, 0x01, 0x00, 0x00, 0x00, 0x01, 0x00, 0x00, 0x00, 0xFA, 0x00, 0x00, 0x00, 0x04, 0x00, 0x00, 0x00, 0x04, 0x00, 0x00, 0x00, 0xFF, 0xFF, 0xFF, 0xFF, 0x01, 0x00, 0x00, 0x00, 0xFA, 0x00, 0x00, 0x00, 0x04, 0x00, 0x00, 0x00, 0x2A, 0x00, 0x00, 0x00, 0x73, 0x65, 0x71, 0x75, 0x65, 0x6E, 0x74, 0x69, 0x61, 0x6C, 0x5F, 0x31, 0x2F, 0x71, 0x75, 0x61, 0x6E, 0x74, 0x5F, 0x6D, 0x61, 0x78, 0x5F, 0x70, 0x6F, 0x6F, 0x6C, 0x69, 0x6E, 0x67, 0x32, 0x64, 0x5F, 0x34, 0x2F, 0x4D, 0x61, 0x78, 0x50, 0x6F, 0x6F, 0x6C, 0x00, 0x00, 0x18, 0xF5, 0xFF, 0xFF, 0x08, 0x00, 0x00, 0x00, 0x0C, 0x00, 0x00, 0x00, 0x01, 0x00, 0x00, 0x00, 0xE2, 0xE8, 0xC7, 0x3D, 0x01, 0x00, 0x00, 0x00, 0xBD, 0xFF, 0xFF, 0xFF, 0xFF, 0xFF, 0xFF, 0xFF, 0x00, 0x00, 0x0E, 0x00, 0x18, 0x00, 0x08, 0x00, 0x0C, 0x00, 0x10, 0x00, 0x07, 0x00, 0x14, 0x00, 0x0E, 0x00, 0x00, 0x00, 0x00, 0x00, 0x00, 0x01, 0x01, 0x00, 0x00, 0x00, 0x30, 0x00, 0x00, 0x00, 0x24, 0x00, 0x00, 0x00, 0x10, 0x00, 0x00, 0x00, 0x0C, 0x00, 0x10, 0x00, 0x00, 0x00, 0x04, 0x00, 0x08, 0x00, 0x0F, 0x00, 0x0C, 0x00, 0x00, 0x00, 0x01, 0x00, 0x00, 0x00, 0x01, 0x00, 0x00, 0x00, 0x00, 0x00, 0x00, 0x01, 0x01, 0x00, 0x00, 0x00, 0x0A, 0x00, 0x00, 0x00, 0x03, 0x00, 0x00, 0x00, 0x08, 0x00, 0x00, 0x00, 0x09, 0x00, 0x00, 0x00, 0x05, 0x00, 0x00, 0x00, 0xA0, 0xFD, 0xFF, 0xFF, 0x03, 0x00, 0x00, 0x00, 0x00, 0x00, 0x00, 0x03, 0x03, 0x00, 0x00, 0x00, 0x94, 0xFD, 0xFF, 0xFF, 0x00, 0x00, 0x00, 0x09, 0x14, 0x00, 0x00, 0x00, 0x0B, 0x00, 0x00, 0x00, 0x34, 0x00, 0x00, 0x00, 0xD8, 0x00, 0x00, 0x00, 0x18, 0x00, 0x00, 0x00, 0x04, 0x00, 0x00, 0x00, 0x01, 0x00, 0x00, 0x00, 0x01, 0x00, 0x00, 0x00, 0xF4, 0x01, 0x00, 0x00, 0x04, 0x00, 0x00, 0x00, 0x04, 0x00, 0x00, 0x00, 0xFF, 0xFF, 0xFF, 0xFF, 0x01, 0x00, 0x00, 0x00, 0xF4, 0x01, 0x00, 0x00, 0x04, 0x00, 0x00, 0x00, 0xA3, 0x00, 0x00, 0x00, 0x73, 0x65, 0x71, 0x75, 0x65, 0x6E, 0x74, 0x69, 0x61, 0x6C, 0x5F, 0x31, 0x2F, 0x71, 0x75, 0x61, 0x6E, 0x74, 0x5F, 0x63, 0x6F, 0x6E, 0x76, 0x32, 0x64, 0x5F, 0x34, 0x2F, 0x52, 0x65, 0x6C, 0x75, 0x3B, 0x73, 0x65, 0x71, 0x75, 0x65, 0x6E, 0x74, 0x69, 0x61, 0x6C, 0x5F, 0x31, 0x2F, 0x71, 0x75, 0x61, 0x6E, 0x74, 0x5F, 0x63, 0x6F, 0x6E, 0x76, 0x32, 0x64, 0x5F, 0x34, 0x2F, 0x42, 0x69, 0x61, 0x73, 0x41, 0x64, 0x64, 0x3B, 0x73, 0x65, 0x71, 0x75, 0x65, 0x6E, 0x74, 0x69, 0x61, 0x6C, 0x5F, 0x31, 0x2F, 0x71, 0x75, 0x61, 0x6E, 0x74, 0x5F, 0x63, 0x6F, 0x6E, 0x76, 0x32, 0x64, 0x5F, 0x34, 0x2F, 0x43, 0x6F, 0x6E, 0x76, 0x32, 0x44, 0x3B, 0x73, 0x65, 0x71, 0x75, 0x65, 0x6E, 0x74, 0x69, 0x61, 0x6C, 0x5F, 0x31, 0x2F, 0x71, 0x75, 0x61, 0x6E, 0x74, 0x5F, 0x63, 0x6F, 0x6E, 0x76, 0x32, 0x64, 0x5F, 0x34, 0x2F, 0x42, 0x69, 0x61, 0x73, 0x41, 0x64, 0x64, 0x2F, 0x52, 0x65, 0x61, 0x64, 0x56, 0x61, 0x72, 0x69, 0x61, 0x62, 0x6C, 0x65, 0x4F, 0x70, 0x2F, 0x72, 0x65, 0x73, 0x6F, 0x75, 0x72, 0x63, 0x65, 0x00, 0x90, 0xF6, 0xFF, 0xFF, 0x08, 0x00, 0x00, 0x00, 0x0C, 0x00, 0x00, 0x00, 0x01, 0x00, 0x00, 0x00, 0xE2, 0xE8, 0xC7, 0x3D, 0x01, 0x00, 0x00, 0x00, 0xBD, 0xFF, 0xFF, 0xFF, 0xFF, 0xFF, 0xFF, 0xFF, 0x00, 0x00, 0x00, 0x00, 0xCE, 0xF5, 0xFF, 0xFF, 0x04, 0x00, 0x00, 0x00, 0x24, 0x00, 0x00, 0x00, 0x49, 0x2B, 0x66, 0x9C, 0xB1, 0x81, 0x38, 0x8E, 0x97, 0x79, 0xD2, 0x59, 0xDE, 0xC6, 0x37, 0x7F, 0xBB, 0x5D, 0x7F, 0x88, 0x13, 0xE1, 0x94, 0xAF, 0x8A, 0x61, 0x36, 0xC6, 0xFC, 0x46, 0x3C, 0x43, 0x6A, 0x03, 0x7F, 0xBF, 0xE2, 0xF5, 0xFF, 0xFF, 0x00, 0x00, 0x00, 0x09, 0x10, 0x00, 0x00, 0x00, 0x0A, 0x00, 0x00, 0x00, 0x1C, 0x00, 0x00, 0x00, 0x8C, 0x00, 0x00, 0x00, 0x04, 0x00, 0x00, 0x00, 0x04, 0x00, 0x00, 0x00, 0x03, 0x00, 0x00, 0x00, 0x03, 0x00, 0x00, 0x00, 0x01, 0x00, 0x00, 0x00, 0x6F, 0x00, 0x00, 0x00, 0x73, 0x65, 0x71, 0x75, 0x65, 0x6E, 0x74, 0x69, 0x61, 0x6C, 0x5F, 0x31, 0x2F, 0x71, 0x75, 0x61, 0x6E, 0x74, 0x5F, 0x63, 0x6F, 0x6E, 0x76, 0x32, 0x64, 0x5F, 0x34, 0x2F, 0x43, 0x6F, 0x6E, 0x76, 0x32, 0x44, 0x3B, 0x73, 0x65, 0x71, 0x75, 0x65, 0x6E, 0x74, 0x69, 0x61, 0x6C, 0x5F, 0x31, 0x2F, 0x71, 0x75, 0x61, 0x6E, 0x74, 0x5F, 0x63, 0x6F, 0x6E, 0x76, 0x32, 0x64, 0x5F, 0x34, 0x2F, 0x4C, 0x61, 0x73, 0x74, 0x56, 0x61, 0x6C, 0x75, 0x65, 0x51, 0x75, 0x61, 0x6E, 0x74, 0x2F, 0x46, 0x61, 0x6B, 0x65, 0x51, 0x75, 0x61, 0x6E, 0x74, 0x57, 0x69, 0x74, 0x68, 0x4D, 0x69, 0x6E, 0x4D, 0x61, 0x78, 0x56, 0x61, 0x72, 0x73, 0x50, 0x65, 0x72, 0x43, 0x68, 0x61, 0x6E, 0x6E, 0x65, 0x6C, 0x00, 0x84, 0xF7, 0xFF, 0xFF, 0x08, 0x00, 0x00, 0x00, 0x18, 0x00, 0x00, 0x00, 0x04, 0x00, 0x00, 0x00, 0x30, 0xCD, 0x29, 0x3B, 0x47, 0x65, 0x3A, 0x3B, 0x00, 0x4C, 0x3A, 0x3B, 0x73, 0x3B, 0x2A, 0x3B, 0x04, 0x00, 0x00, 0x00, 0x00, 0x00, 0x00, 0x00, 0x00, 0x00, 0x00, 0x00, 0x00, 0x00, 0x00, 0x00, 0x00, 0x00, 0x00, 0x00, 0x00, 0x00, 0x00, 0x00, 0x00, 0x00, 0x00, 0x00, 0x00, 0x00, 0x00, 0x00, 0x00, 0x00, 0x00, 0x00, 0x00, 0x00, 0x00, 0x00, 0x00, 0x00, 0x0A, 0x00, 0x0C, 0x00, 0x00, 0x00, 0x04, 0x00, 0x08, 0x00, 0x0A, 0x00, 0x00, 0x00, 0x10, 0x00, 0x00, 0x00, 0x04, 0x00, 0x00, 0x00, 0x01, 0x00, 0x00, 0x00, 0x08, 0x00, 0x00, 0x00, 0x01, 0x00, 0x00, 0x00, 0x00, 0x00, 0x00, 0x00, 0x0C, 0x00, 0x10, 0x00, 0x0B, 0x00, 0x00, 0x00, 0x0C, 0x00, 0x04, 0x00, 0x0C, 0x00, 0x00, 0x00, 0x72, 0x00, 0x00, 0x00, 0x00, 0x00, 0x00, 0x72, 0x01, 0x00, 0x00, 0x00, 0x14, 0x00, 0x1C, 0x00, 0x08, 0x00, 0x07, 0x00, 0x0C, 0x00, 0x10, 0x00, 0x14, 0x00, 0x00, 0x00, 0x00, 0x00, 0x18, 0x00, 0x14, 0x00, 0x00, 0x00, 0x00, 0x00, 0x00, 0x09, 0x14, 0x00, 0x00, 0x00, 0x09, 0x00, 0x00, 0x00, 0x34, 0x00, 0x00, 0x00, 0x38, 0x01, 0x00, 0x00, 0x18, 0x00, 0x00, 0x00, 0x04, 0x00, 0x00, 0x00, 0x01, 0x00, 0x00, 0x00, 0x01, 0x00, 0x00, 0x00, 0xF4, 0x01, 0x00, 0x00, 0x01, 0x00, 0x00, 0x00, 0x04, 0x00, 0x00, 0x00, 0xFF, 0xFF, 0xFF, 0xFF, 0x01, 0x00, 0x00, 0x00, 0xF4, 0x01, 0x00, 0x00, 0x01, 0x00, 0x00, 0x00, 0x03, 0x01, 0x00, 0x00, 0x73, 0x65, 0x71, 0x75, 0x65, 0x6E, 0x74, 0x69, 0x61, 0x6C, 0x5F, 0x31, 0x2F, 0x71, 0x75, 0x61, 0x6E, 0x74, 0x69, 0x7A, 0x65, 0x5F, 0x6C, 0x61, 0x79, 0x65, 0x72, 0x2F, 0x41, 0x6C, 0x6C, 0x56, 0x61, 0x6C, 0x75, 0x65, 0x73, 0x51, 0x75, 0x61, 0x6E, 0x74, 0x69, 0x7A, 0x65, 0x2F, 0x46, 0x61, 0x6B, 0x65, 0x51, 0x75, 0x61, 0x6E, 0x74, 0x57, 0x69, 0x74, 0x68, 0x4D, 0x69, 0x6E, 0x4D, 0x61, 0x78, 0x56, 0x61, 0x72, 0x73, 0x3B, 0x73, 0x65, 0x71, 0x75, 0x65, 0x6E, 0x74, 0x69, 0x61, 0x6C, 0x5F, 0x31, 0x2F, 0x71, 0x75, 0x61, 0x6E, 0x74, 0x69, 0x7A, 0x65, 0x5F, 0x6C, 0x61, 0x79, 0x65, 0x72, 0x2F, 0x41, 0x6C, 0x6C, 0x56, 0x61, 0x6C, 0x75, 0x65, 0x73, 0x51, 0x75, 0x61, 0x6E, 0x74, 0x69, 0x7A, 0x65, 0x2F, 0x46, 0x61, 0x6B, 0x65, 0x51, 0x75, 0x61, 0x6E, 0x74, 0x57, 0x69, 0x74, 0x68, 0x4D, 0x69, 0x6E, 0x4D, 0x61, 0x78, 0x56, 0x61, 0x72, 0x73, 0x2F, 0x52, 0x65, 0x61, 0x64, 0x56, 0x61, 0x72, 0x69, 0x61, 0x62, 0x6C, 0x65, 0x4F, 0x70, 0x2F, 0x72, 0x65, 0x73, 0x6F, 0x75, 0x72, 0x63, 0x65, 0x3B, 0x73, 0x65, 0x71, 0x75, 0x65, 0x6E, 0x74, 0x69, 0x61, 0x6C, 0x5F, 0x31, 0x2F, 0x71, 0x75, 0x61, 0x6E, 0x74, 0x69, 0x7A, 0x65, 0x5F, 0x6C, 0x61, 0x79, 0x65, 0x72, 0x2F, 0x41, 0x6C, 0x6C, 0x56, 0x61, 0x6C, 0x75, 0x65, 0x73, 0x51, 0x75, 0x61, 0x6E, 0x74, 0x69, 0x7A, 0x65, 0x2F, 0x46, 0x61, 0x6B, 0x65, 0x51, 0x75, 0x61, 0x6E, 0x74, 0x57, 0x69, 0x74, 0x68, 0x4D, 0x69, 0x6E, 0x4D, 0x61, 0x78, 0x56, 0x61, 0x72, 0x73, 0x2F, 0x52, 0x65, 0x61, 0x64, 0x56, 0x61, 0x72, 0x69, 0x61, 0x62, 0x6C, 0x65, 0x4F, 0x70, 0x5F, 0x31, 0x2F, 0x72, 0x65, 0x73, 0x6F, 0x75, 0x72, 0x63, 0x65, 0x00, 0x70, 0xF9, 0xFF, 0xFF, 0x08, 0x00, 0x00, 0x00, 0x0C, 0x00, 0x00, 0x00, 0x01, 0x00, 0x00, 0x00, 0x74, 0xFF, 0x6C, 0x41, 0x01, 0x00, 0x00, 0x00, 0x5D, 0x00, 0x00, 0x00, 0x00, 0x00, 0x00, 0x00, 0x00, 0x00, 0x00, 0x00, 0xAE, 0xF8, 0xFF, 0xFF, 0x04, 0x00, 0x00, 0x00, 0x10, 0x00, 0x00, 0x00, 0xE7, 0xFF, 0xFF, 0xFF, 0xE7, 0xFF, 0xFF, 0xFF, 0x14, 0x00, 0x00, 0x00, 0x19, 0x00, 0x00, 0x00, 0xAE, 0xF8, 0xFF, 0xFF, 0x00, 0x00, 0x00, 0x02, 0x10, 0x00, 0x00, 0x00, 0x08, 0x00, 0x00, 0x00, 0x10, 0x00, 0x00, 0x00, 0x4C, 0x00, 0x00, 0x00, 0x01, 0x00, 0x00, 0x00, 0x04, 0x00, 0x00, 0x00, 0x3A, 0x00, 0x00, 0x00, 0x73, 0x65, 0x71, 0x75, 0x65, 0x6E, 0x74, 0x69, 0x61, 0x6C, 0x5F, 0x31, 0x2F, 0x71, 0x75, 0x61, 0x6E, 0x74, 0x5F, 0x64, 0x65, 0x6E, 0x73, 0x65, 0x5F, 0x33, 0x2F, 0x42, 0x69, 0x61, 0x73, 0x41, 0x64, 0x64, 0x2F, 0x52, 0x65, 0x61, 0x64, 0x56, 0x61, 0x72, 0x69, 0x61, 0x62, 0x6C, 0x65, 0x4F, 0x70, 0x2F, 0x72, 0x65, 0x73, 0x6F, 0x75, 0x72, 0x63, 0x65, 0x00, 0x00, 0x10, 0xFA, 0xFF, 0xFF, 0x08, 0x00, 0x00, 0x00, 0x0C, 0x00, 0x00, 0x00, 0x01, 0x00, 0x00, 0x00, 0x65, 0x47, 0x93, 0x39, 0x01, 0x00, 0x00, 0x00, 0x00, 0x00, 0x00, 0x00, 0x00, 0x00, 0x00, 0x00, 0x00, 0x00, 0x00, 0x00, 0x4E, 0xF9, 0xFF, 0xFF, 0x04, 0x00, 0x00, 0x00, 0x10, 0x00, 0x00, 0x00, 0x7F, 0x00, 0x00, 0x00, 0x11, 0x00, 0x00, 0x00, 0x5A, 0xFF, 0xFF, 0xFF, 0x5C, 0xFF, 0xFF, 0xFF, 0x4E, 0xF9, 0xFF, 0xFF, 0x00, 0x00, 0x00, 0x02, 0x10, 0x00, 0x00, 0x00, 0x07, 0x00, 0x00, 0x00, 0x10, 0x00, 0x00, 0x00, 0x4C, 0x00, 0x00, 0x00, 0x01, 0x00, 0x00, 0x00, 0x04, 0x00, 0x00, 0x00, 0x3A, 0x00, 0x00, 0x00, 0x73, 0x65, 0x71, 0x75, 0x65, 0x6E, 0x74, 0x69, 0x61, 0x6C, 0x5F, 0x31, 0x2F, 0x71, 0x75, 0x61, 0x6E, 0x74, 0x5F, 0x64, 0x65, 0x6E, 0x73, 0x65, 0x5F, 0x32, 0x2F, 0x42, 0x69, 0x61, 0x73, 0x41, 0x64, 0x64, 0x2F, 0x52, 0x65, 0x61, 0x64, 0x56, 0x61, 0x72, 0x69, 0x61, 0x62, 0x6C, 0x65, 0x4F, 0x70, 0x2F, 0x72, 0x65, 0x73, 0x6F, 0x75, 0x72, 0x63, 0x65, 0x00, 0x00, 0xB0, 0xFA, 0xFF, 0xFF, 0x08, 0x00, 0x00, 0x00, 0x0C, 0x00, 0x00, 0x00, 0x01, 0x00, 0x00, 0x00, 0xC3, 0x5A, 0x2F, 0x38, 0x01, 0x00, 0x00, 0x00, 0x00, 0x00, 0x00, 0x00, 0x00, 0x00, 0x00, 0x00, 0xEA, 0xF9, 0xFF, 0xFF, 0x04, 0x00, 0x00, 0x00, 0x10, 0x00, 0x00, 0x00, 0x00, 0x00, 0x00, 0x00, 0x00, 0x00, 0x00, 0x00, 0x00, 0x00, 0x00, 0x00, 0x00, 0x00, 0x00, 0x00, 0xEA, 0xF9, 0xFF, 0xFF, 0x00, 0x00, 0x00, 0x02, 0x10, 0x00, 0x00, 0x00, 0x06, 0x00, 0x00, 0x00, 0x10, 0x00, 0x00, 0x00, 0x94, 0x00, 0x00, 0x00, 0x01, 0x00, 0x00, 0x00, 0x04, 0x00, 0x00, 0x00, 0x82, 0x00, 0x00, 0x00, 0x73, 0x65, 0x71, 0x75, 0x65, 0x6E, 0x74, 0x69, 0x61, 0x6C, 0x5F, 0x31, 0x2F, 0x71, 0x75, 0x61, 0x6E, 0x74, 0x5F, 0x63, 0x6F, 0x6E, 0x76, 0x32, 0x64, 0x5F, 0x34, 0x2F, 0x42, 0x69, 0x61, 0x73, 0x41, 0x64, 0x64, 0x3B, 0x73, 0x65, 0x71, 0x75, 0x65, 0x6E, 0x74, 0x69, 0x61, 0x6C, 0x5F, 0x31, 0x2F, 0x71, 0x75, 0x61, 0x6E, 0x74, 0x5F, 0x63, 0x6F, 0x6E, 0x76, 0x32, 0x64, 0x5F, 0x34, 0x2F, 0x43, 0x6F, 0x6E, 0x76, 0x32, 0x44, 0x3B, 0x73, 0x65, 0x71, 0x75, 0x65, 0x6E, 0x74, 0x69, 0x61, 0x6C, 0x5F, 0x31, 0x2F, 0x71, 0x75, 0x61, 0x6E, 0x74, 0x5F, 0x63, 0x6F, 0x6E, 0x76, 0x32, 0x64, 0x5F, 0x34, 0x2F, 0x42, 0x69, 0x61, 0x73, 0x41, 0x64, 0x64, 0x2F, 0x52, 0x65, 0x61, 0x64, 0x56, 0x61, 0x72, 0x69, 0x61, 0x62, 0x6C, 0x65, 0x4F, 0x70, 0x2F, 0x72, 0x65, 0x73, 0x6F, 0x75, 0x72, 0x63, 0x65, 0x00, 0x00, 0x94, 0xFB, 0xFF, 0xFF, 0x08, 0x00, 0x00, 0x00, 0x18, 0x00, 0x00, 0x00, 0x04, 0x00, 0x00, 0x00, 0x99, 0x32, 0x1D, 0x3D, 0x5C, 0x8F, 0x2C, 0x3D, 0xF6, 0x77, 0x2C, 0x3D, 0xAC, 0x98, 0x1D, 0x3D, 0x04, 0x00, 0x00, 0x00, 0x00, 0x00, 0x00, 0x00, 0x00, 0x00, 0x00, 0x00, 0x00, 0x00, 0x00, 0x00, 0x00, 0x00, 0x00, 0x00, 0x00, 0x00, 0x00, 0x00, 0x00, 0x00, 0x00, 0x00, 0x00, 0x00, 0x00, 0x00, 0x00, 0x00, 0x00, 0x00, 0xF2, 0xFA, 0xFF, 0xFF, 0x04, 0x00, 0x00, 0x00, 0x20, 0x00, 0x00, 0x00, 0x1F, 0x00, 0x00, 0x00, 0xDC, 0xFF, 0xFF, 0xFF, 0x1B, 0x00, 0x00, 0x00, 0x24, 0x00, 0x00, 0x00, 0xE0, 0xFF, 0xFF, 0xFF, 0x05, 0x00, 0x00, 0x00, 0x1E, 0x00, 0x00, 0x00, 0xEF, 0xFF, 0xFF, 0xFF, 0x02, 0xFB, 0xFF, 0xFF, 0x00, 0x00, 0x00, 0x02, 0x10, 0x00, 0x00, 0x00, 0x05, 0x00, 0x00, 0x00, 0x10, 0x00, 0x00, 0x00, 0x94, 0x00, 0x00, 0x00, 0x01, 0x00, 0x00, 0x00, 0x08, 0x00, 0x00, 0x00, 0x82, 0x00, 0x00, 0x00, 0x73, 0x65, 0x71, 0x75, 0x65, 0x6E, 0x74, 0x69, 0x61, 0x6C, 0x5F, 0x31, 0x2F, 0x71, 0x75, 0x61, 0x6E, 0x74, 0x5F, 0x63, 0x6F, 0x6E, 0x76, 0x32, 0x64, 0x5F, 0x35, 0x2F, 0x42, 0x69, 0x61, 0x73, 0x41, 0x64, 0x64, 0x3B, 0x73, 0x65, 0x71, 0x75, 0x65, 0x6E, 0x74, 0x69, 0x61, 0x6C, 0x5F, 0x31, 0x2F, 0x71, 0x75, 0x61, 0x6E, 0x74, 0x5F, 0x63, 0x6F, 0x6E, 0x76, 0x32, 0x64, 0x5F, 0x35, 0x2F, 0x43, 0x6F, 0x6E, 0x76, 0x32, 0x44, 0x3B, 0x73, 0x65, 0x71, 0x75, 0x65, 0x6E, 0x74, 0x69, 0x61, 0x6C, 0x5F, 0x31, 0x2F, 0x71, 0x75, 0x61, 0x6E, 0x74, 0x5F, 0x63, 0x6F, 0x6E, 0x76, 0x32, 0x64, 0x5F, 0x35, 0x2F, 0x42, 0x69, 0x61, 0x73, 0x41, 0x64, 0x64, 0x2F, 0x52, 0x65, 0x61, 0x64, 0x56, 0x61, 0x72, 0x69, 0x61, 0x62, 0x6C, 0x65, 0x4F, 0x70, 0x2F, 0x72, 0x65, 0x73, 0x6F, 0x75, 0x72, 0x63, 0x65, 0x00, 0x00, 0xAC, 0xFC, 0xFF, 0xFF, 0x08, 0x00, 0x00, 0x00, 0x28, 0x00, 0x00, 0x00, 0x08, 0x00, 0x00, 0x00, 0xFD, 0xF9, 0x39, 0x39, 0x38, 0xF0, 0x40, 0x39, 0x73, 0xF7, 0x3A, 0x39, 0xD0, 0xFB, 0x3A, 0x39, 0x40, 0xA4, 0x3B, 0x39, 0x4F, 0xB2, 0x39, 0x39, 0xD6, 0xFB, 0x35, 0x39, 0x9A, 0xC3, 0x36, 0x39, 0x08, 0x00, 0x00, 0x00, 0x00, 0x00, 0x00, 0x00, 0x00, 0x00, 0x00, 0x00, 0x00, 0x00, 0x00, 0x00, 0x00, 0x00, 0x00, 0x00, 0x00, 0x00, 0x00, 0x00, 0x00, 0x00, 0x00, 0x00, 0x00, 0x00, 0x00, 0x00, 0x00, 0x00, 0x00, 0x00, 0x00, 0x00, 0x00, 0x00, 0x00, 0x00, 0x00, 0x00, 0x00, 0x00, 0x00, 0x00, 0x00, 0x00, 0x00, 0x00, 0x00, 0x00, 0x00, 0x00, 0x00, 0x00, 0x00, 0x00, 0x00, 0x00, 0x00, 0x00, 0x00, 0x00, 0x00, 0x00, 0x3A, 0xFC, 0xFF, 0xFF, 0x04, 0x00, 0x00, 0x00, 0x40, 0x00, 0x00, 0x00, 0x65, 0x00, 0x00, 0x00, 0xB4, 0xFF, 0xFF, 0xFF, 0xCA, 0xFF, 0xFF, 0xFF, 0x8D, 0xFF, 0xFF, 0xFF, 0x4E, 0x00, 0x00, 0x00, 0xAB, 0xFF, 0xFF, 0xFF, 0xBB, 0xFF, 0xFF, 0xFF, 0x5F, 0x00, 0x00, 0x00, 0x2D, 0x00, 0x00, 0x00, 0x1B, 0x00, 0x00, 0x00, 0xA2, 0xFF, 0xFF, 0xFF, 0xEC, 0xFF, 0xFF, 0xFF, 0xFF, 0xFF, 0xFF, 0xFF, 0x60, 0x00, 0x00, 0x00, 0x96, 0xFF, 0xFF, 0xFF, 0x5C, 0x00, 0x00, 0x00, 0x6A, 0xFC, 0xFF, 0xFF, 0x00, 0x00, 0x00, 0x02, 0x10, 0x00, 0x00, 0x00, 0x04, 0x00, 0x00, 0x00, 0x10, 0x00, 0x00, 0x00, 0x94, 0x00, 0x00, 0x00, 0x01, 0x00, 0x00, 0x00, 0x10, 0x00, 0x00, 0x00, 0x82, 0x00, 0x00, 0x00, 0x73, 0x65, 0x71, 0x75, 0x65, 0x6E, 0x74, 0x69, 0x61, 0x6C, 0x5F, 0x31, 0x2F, 0x71, 0x75, 0x61, 0x6E, 0x74, 0x5F, 0x63, 0x6F, 0x6E, 0x76, 0x32, 0x64, 0x5F, 0x36, 0x2F, 0x42, 0x69, 0x61, 0x73, 0x41, 0x64, 0x64, 0x3B, 0x73, 0x65, 0x71, 0x75, 0x65, 0x6E, 0x74, 0x69, 0x61, 0x6C, 0x5F, 0x31, 0x2F, 0x71, 0x75, 0x61, 0x6E, 0x74, 0x5F, 0x63, 0x6F, 0x6E, 0x76, 0x32, 0x64, 0x5F, 0x36, 0x2F, 0x43, 0x6F, 0x6E, 0x76, 0x32, 0x44, 0x3B, 0x73, 0x65, 0x71, 0x75, 0x65, 0x6E, 0x74, 0x69, 0x61, 0x6C, 0x5F, 0x31, 0x2F, 0x71, 0x75, 0x61, 0x6E, 0x74, 0x5F, 0x63, 0x6F, 0x6E, 0x76, 0x32, 0x64, 0x5F, 0x36, 0x2F, 0x42, 0x69, 0x61, 0x73, 0x41, 0x64, 0x64, 0x2F, 0x52, 0x65, 0x61, 0x64, 0x56, 0x61, 0x72, 0x69, 0x61, 0x62, 0x6C, 0x65, 0x4F, 0x70, 0x2F, 0x72, 0x65, 0x73, 0x6F, 0x75, 0x72, 0x63, 0x65, 0x00, 0x00, 0x14, 0xFE, 0xFF, 0xFF, 0x08, 0x00, 0x00, 0x00, 0x48, 0x00, 0x00, 0x00, 0x10, 0x00, 0x00, 0x00, 0x9D, 0x43, 0x81, 0x38, 0x37, 0xA7, 0x80, 0x38, 0xE1, 0xFB, 0x7C, 0x38, 0x23, 0xE1, 0x75, 0x38, 0x76, 0x4B, 0x7B, 0x38, 0x5B, 0xA5, 0x7F, 0x38, 0x36, 0xE6, 0x80, 0x38, 0x0A, 0xC0, 0x7D, 0x38, 0xF4, 0x88, 0x80, 0x38, 0x49, 0xB6, 0x83, 0x38, 0x0F, 0x69, 0x82, 0x38, 0xEB, 0x39, 0x7D, 0x38, 0x84, 0x2D, 0x81, 0x38, 0x97, 0x62, 0x7C, 0x38, 0x45, 0x2D, 0x7F, 0x38, 0xD4, 0xA7, 0x7B, 0x38, 0x10, 0x00, 0x00, 0x00, 0x00, 0x00, 0x00, 0x00, 0x00, 0x00, 0x00, 0x00, 0x00, 0x00, 0x00, 0x00, 0x00, 0x00, 0x00, 0x00, 0x00, 0x00, 0x00, 0x00, 0x00, 0x00, 0x00, 0x00, 0x00, 0x00, 0x00, 0x00, 0x00, 0x00, 0x00, 0x00, 0x00, 0x00, 0x00, 0x00, 0x00, 0x00, 0x00, 0x00, 0x00, 0x00, 0x00, 0x00, 0x00, 0x00, 0x00, 0x00, 0x00, 0x00, 0x00, 0x00, 0x00, 0x00, 0x00, 0x00, 0x00, 0x00, 0x00, 0x00, 0x00, 0x00, 0x00, 0x00, 0x00, 0x00, 0x00, 0x00, 0x00, 0x00, 0x00, 0x00, 0x00, 0x00, 0x00, 0x00, 0x00, 0x00, 0x00, 0x00, 0x00, 0x00, 0x00, 0x00, 0x00, 0x00, 0x00, 0x00, 0x00, 0x00, 0x00, 0x00, 0x00, 0x00, 0x00, 0x00, 0x00, 0x00, 0x00, 0x00, 0x00, 0x00, 0x00, 0x00, 0x00, 0x00, 0x00, 0x00, 0x00, 0x00, 0x00, 0x00, 0x00, 0x00, 0x00, 0x00, 0x00, 0x00, 0x00, 0x00, 0x00, 0x00, 0x00, 0x00, 0x00, 0x00, 0x00, 0x00, 0x02, 0xFE, 0xFF, 0xFF, 0x04, 0x00, 0x00, 0x00, 0x40, 0x00, 0x00, 0x00, 0x59, 0x00, 0x00, 0x00, 0x81, 0xFF, 0xFF, 0xFF, 0x94, 0xFF, 0xFF, 0xFF, 0x6B, 0x00, 0x00, 0x00, 0x57, 0x00, 0x00, 0x00, 0x6F, 0x00, 0x00, 0x00, 0xD5, 0xFF, 0xFF, 0xFF, 0x88, 0xFF, 0xFF, 0xFF, 0x8C, 0xFF, 0xFF, 0xFF, 0x5D, 0x00, 0x00, 0x00, 0x7C, 0x00, 0x00, 0x00, 0x76, 0x00, 0x00, 0x00, 0xAB, 0xFF, 0xFF, 0xFF, 0x7C, 0x00, 0x00, 0x00, 0x82, 0x00, 0x00, 0x00, 0x7A, 0x00, 0x00, 0x00, 0x32, 0xFE, 0xFF, 0xFF, 0x00, 0x00, 0x00, 0x02, 0x10, 0x00, 0x00, 0x00, 0x03, 0x00, 0x00, 0x00, 0x10, 0x00, 0x00, 0x00, 0xC4, 0x00, 0x00, 0x00, 0x01, 0x00, 0x00, 0x00, 0x10, 0x00, 0x00, 0x00, 0xA5, 0x00, 0x00, 0x00, 0x73, 0x65, 0x71, 0x75, 0x65, 0x6E, 0x74, 0x69, 0x61, 0x6C, 0x5F, 0x31, 0x2F, 0x71, 0x75, 0x61, 0x6E, 0x74, 0x5F, 0x63, 0x6F, 0x6E, 0x76, 0x32, 0x64, 0x5F, 0x37, 0x2F, 0x42, 0x69, 0x61, 0x73, 0x41, 0x64, 0x64, 0x3B, 0x73, 0x65, 0x71, 0x75, 0x65, 0x6E, 0x74, 0x69, 0x61, 0x6C, 0x5F, 0x31, 0x2F, 0x71, 0x75, 0x61, 0x6E, 0x74, 0x5F, 0x63, 0x6F, 0x6E, 0x76, 0x32, 0x64, 0x5F, 0x36, 0x2F, 0x43, 0x6F, 0x6E, 0x76, 0x32, 0x44, 0x3B, 0x73, 0x65, 0x71, 0x75, 0x65, 0x6E, 0x74, 0x69, 0x61, 0x6C, 0x5F, 0x31, 0x2F, 0x71, 0x75, 0x61, 0x6E, 0x74, 0x5F, 0x63, 0x6F, 0x6E, 0x76, 0x32, 0x64, 0x5F, 0x37, 0x2F, 0x43, 0x6F, 0x6E, 0x76, 0x32, 0x44, 0x3B, 0x73, 0x65, 0x71, 0x75, 0x65, 0x6E, 0x74, 0x69, 0x61, 0x6C, 0x5F, 0x31, 0x2F, 0x71, 0x75, 0x61, 0x6E, 0x74, 0x5F, 0x63, 0x6F, 0x6E, 0x76, 0x32, 0x64, 0x5F, 0x37, 0x2F, 0x42, 0x69, 0x61, 0x73, 0x41, 0x64, 0x64, 0x2F, 0x52, 0x65, 0x61, 0x64, 0x56, 0x61, 0x72, 0x69, 0x61, 0x62, 0x6C, 0x65, 0x4F, 0x70, 0x2F, 0x72, 0x65, 0x73, 0x6F, 0x75, 0x72, 0x63, 0x65, 0x00, 0x00, 0x00, 0x0C, 0x00, 0x0C, 0x00, 0x00, 0x00, 0x00, 0x00, 0x04, 0x00, 0x08, 0x00, 0x0C, 0x00, 0x00, 0x00, 0x08, 0x00, 0x00, 0x00, 0x48, 0x00, 0x00, 0x00, 0x10, 0x00, 0x00, 0x00, 0x34, 0x75, 0x5E, 0x38, 0x8E, 0x30, 0x5D, 0x38, 0x66, 0xB9, 0x61, 0x38, 0x1F, 0x6B, 0x61, 0x38, 0x10, 0xA3, 0x5E, 0x38, 0xC6, 0x7A, 0x5F, 0x38, 0x93, 0xD6, 0x62, 0x38, 0x71, 0xD7, 0x65, 0x38, 0x52, 0x31, 0x5C, 0x38, 0xA9, 0xC9, 0x5E, 0x38, 0x31, 0x6F, 0x5F, 0x38, 0xD0, 0x33, 0x63, 0x38, 0x67, 0x82, 0x5F, 0x38, 0x09, 0x14, 0x67, 0x38, 0xAA, 0x1D, 0x5C, 0x38, 0xC7, 0x69, 0x5F, 0x38, 0x10, 0x00, 0x00, 0x00, 0x00, 0x00, 0x00, 0x00, 0x00, 0x00, 0x00, 0x00, 0x00, 0x00, 0x00, 0x00, 0x00, 0x00, 0x00, 0x00, 0x00, 0x00, 0x00, 0x00, 0x00, 0x00, 0x00, 0x00, 0x00, 0x00, 0x00, 0x00, 0x00, 0x00, 0x00, 0x00, 0x00, 0x00, 0x00, 0x00, 0x00, 0x00, 0x00, 0x00, 0x00, 0x00, 0x00, 0x00, 0x00, 0x00, 0x00, 0x00, 0x00, 0x00, 0x00, 0x00, 0x00, 0x00, 0x00, 0x00, 0x00, 0x00, 0x00, 0x00, 0x00, 0x00, 0x00, 0x00, 0x00, 0x00, 0x00, 0x00, 0x00, 0x00, 0x00, 0x00, 0x00, 0x00, 0x00, 0x00, 0x00, 0x00, 0x00, 0x00, 0x00, 0x00, 0x00, 0x00, 0x00, 0x00, 0x00, 0x00, 0x00, 0x00, 0x00, 0x00, 0x00, 0x00, 0x00, 0x00, 0x00, 0x00, 0x00, 0x00, 0x00, 0x00, 0x00, 0x00, 0x00, 0x00, 0x00, 0x00, 0x00, 0x00, 0x00, 0x00, 0x00, 0x00, 0x00, 0x00, 0x00, 0x00, 0x00, 0x00, 0x00, 0x00, 0x00, 0x00, 0x00, 0x00, 0x00, 0x00, 0x00, 0x00, 0x00, 0x00, 0x00, 0x00, 0x06, 0x00, 0x08, 0x00, 0x04, 0x00, 0x06, 0x00, 0x00, 0x00, 0x04, 0x00, 0x00, 0x00, 0x08, 0x00, 0x00, 0x00, 0xFF, 0xFF, 0xFF, 0xFF, 0x00, 0x02, 0x00, 0x00, 0x00, 0x00, 0x0E, 0x00, 0x18, 0x00, 0x08, 0x00, 0x07, 0x00, 0x0C, 0x00, 0x10, 0x00, 0x14, 0x00, 0x0E, 0x00, 0x00, 0x00, 0x00, 0x00, 0x00, 0x02, 0x10, 0x00, 0x00, 0x00, 0x02, 0x00, 0x00, 0x00, 0x10, 0x00, 0x00, 0x00, 0x34, 0x00, 0x00, 0x00, 0x01, 0x00, 0x00, 0x00, 0x02, 0x00, 0x00, 0x00, 0x22, 0x00, 0x00, 0x00, 0x73, 0x65, 0x71, 0x75, 0x65, 0x6E, 0x74, 0x69, 0x61, 0x6C, 0x5F, 0x31, 0x2F, 0x71, 0x75, 0x61, 0x6E, 0x74, 0x5F, 0x66, 0x6C, 0x61, 0x74, 0x74, 0x65, 0x6E, 0x5F, 0x31, 0x2F, 0x43, 0x6F, 0x6E, 0x73, 0x74, 0x00, 0x00, 0x98, 0xFF, 0xFF, 0xFF, 0x14, 0x00, 0x18, 0x00, 0x04, 0x00, 0x00, 0x00, 0x08, 0x00, 0x0C, 0x00, 0x10, 0x00, 0x00, 0x00, 0x00, 0x00, 0x14, 0x00, 0x14, 0x00, 0x00, 0x00, 0x14, 0x00, 0x00, 0x00, 0x01, 0x00, 0x00, 0x00, 0x34, 0x00, 0x00, 0x00, 0x3C, 0x00, 0x00, 0x00, 0x18, 0x00, 0x00, 0x00, 0x04, 0x00, 0x00, 0x00, 0x01, 0x00, 0x00, 0x00, 0x01, 0x00, 0x00, 0x00, 0xF4, 0x01, 0x00, 0x00, 0x01, 0x00, 0x00, 0x00, 0x04, 0x00, 0x00, 0x00, 0xFF, 0xFF, 0xFF, 0xFF, 0x01, 0x00, 0x00, 0x00, 0xF4, 0x01, 0x00, 0x00, 0x01, 0x00, 0x00, 0x00, 0x07, 0x00, 0x00, 0x00, 0x69, 0x6E, 0x70, 0x75, 0x74, 0x5F, 0x32, 0x00, 0xFC, 0xFF, 0xFF, 0xFF, 0x04, 0x00, 0x04, 0x00, 0x04, 0x00, 0x00, 0x00
};
unsigned int model_tflite_len = 13888;